{
  "\u0013</w>": 30127,
  "\u0014": 30140,
  "\u0018": 30040,
  "\u0019": 29174,
  "\u0019</w>": 30005,
  "!": 29554,
  "!</w>": 149,
  "\"": 23534,
  "\"</w>": 19,
  "#</w>": 1445,
  "$</w>": 332,
  "%</w>": 121,
  "&</w>": 375,
  "'": 296,
  "'</w>": 61,
  "'a</w>": 14670,
  "'al": 23701,
  "'all</w>": 24892,
  "'am": 22549,
  "'am</w>": 29520,
  "'an</w>": 13257,
  "'and</w>": 17165,
  "'ar": 19752,
  "'brien</w>": 11645,
  "'but</w>": 19320,
  "'cause</w>": 26895,
  "'connor</w>": 16117,
  "'d</w>": 120,
  "'donnell</w>": 26079,
  "'em</w>": 16556,
  "'etat</w>": 22083,
  "'he</w>": 21636,
  "'i</w>": 3756,
  "'is</w>": 24008,
  "'it</w>": 11659,
  "'l</w>": 22209,
  "'ll</w>": 344,
  "'m</w>": 194,
  "'n</w>": 25422,
  "'ne": 19654,
  "'neill</w>": 16420,
  "'no</w>": 18657,
  "'oh</w>": 21991,
  "'or</w>": 26692,
  "'re</w>": 263,
  "'s-": 22688,
  "'s</w>": 34,
  "'t</w>": 50,
  "'that</w>": 17250,
  "'the</w>": 15061,
  "'ve</w>": 474,
  "'we</w>": 16338,
  "'well</w>": 25537,
  "'what</w>": 12941,
  "'yes</w>": 21665,
  "'you</w>": 8411,
  "(": 27801,
  "(</w>": 36,
  ")": 30142,
  ")</w>": 35,
  "*": 12409,
  "**": 8430,
  "****": 24302,
  "***</w>": 8451,
  "**</w>": 26840,
  "*</w>": 1489,
  "+": 29624,
  "+-</w>": 26028,
  "+</w>": 2173,
  ",": 8528,
  ",0": 5550,
  ",00": 28863,
  ",000,000</w>": 18563,
  ",000-": 17268,
  ",000</w>": 7210,
  ",</w>": 15,
  "-": 127,
  "--": 24917,
  "--</w>": 456,
  "-1</w>": 16852,
  "-2</w>": 22563,
  "-</w>": 62,
  "-></w>": 18508,
  "-a</w>": 15654,
  "-and-": 11213,
  "-and</w>": 10292,
  "-based</w>": 4595,
  "-class</w>": 15492,
  "-day</w>": 23607,
  "-de-": 21637,
  "-e</w>": 7388,
  "-fi</w>": 17014,
  "-fm</w>": 24909,
  "-general</w>": 20662,
  "-he</w>": 25159,
  "-i</w>": 14434,
  "-in-": 16406,
  "-in-chief</w>": 29745,
  "-in-law</w>": 16000,
  "-in</w>": 15251,
  "-like</w>": 7930,
  "-long</w>": 15104,
  "-off</w>": 14823,
  "-out</w>": 19713,
  "-ray</w>": 29293,
  "-related</w>": 24978,
  "-shaped</w>": 24910,
  "-style</w>": 21998,
  "-the</w>": 17366,
  "-time</w>": 21218,
  "-to-": 8352,
  "-tv</w>": 20475,
  "-up</w>": 6157,
  "-y": 8771,
  "-yard</w>": 5529,
  "-ye</w>": 14344,
  "-year-old</w>": 4169,
  ".": 1185,
  "...</w>": 181,
  "..</w>": 5727,
  ".2": 14110,
  ".3": 15082,
  ".</w>": 16,
  ".a.</w>": 16339,
  ".c.</w>": 10137,
  ".com.</w>": 25068,
  ".com</w>": 4414,
  ".d.</w>": 9998,
  ".net</w>": 26478,
  ".org</w>": 18631,
  ".the</w>": 14851,
  "/": 6038,
  "/</w>": 135,
  "0": 2308,
  "0,000</w>": 6993,
  "0-": 2782,
  "0.": 1765,
  "0.00</w>": 25014,
  "0.0</w>": 17976,
  "0.1</w>": 12520,
  "0.2</w>": 13573,
  "0.3</w>": 13482,
  "0.4</w>": 14940,
  "0.5</w>": 11078,
  "0.6</w>": 15637,
  "0.7</w>": 15979,
  "0.8</w>": 15590,
  "0.9</w>": 17082,
  "00": 4455,
  "000</w>": 9414,
  "00</w>": 2904,
  "01</w>": 5873,
  "02</w>": 6634,
  "03</w>": 6582,
  "04</w>": 6303,
  "05</w>": 5903,
  "06</w>": 6158,
  "07</w>": 5754,
  "08</w>": 5575,
  "09</w>": 5543,
  "0</w>": 1010,
  "0m</w>": 24669,
  "0s</w>": 9889,
  "0th</w>": 11559,
  "1": 1473,
  "1,": 3417,
  "1,0": 8887,
  "1,00": 24969,
  "1,000</w>": 5213,
  "1,2": 13767,
  "1,200</w>": 19152,
  "1,3": 12738,
  "1,4": 13063,
  "1,5": 13441,
  "1,500</w>": 12674,
  "1,6": 13852,
  "1,7": 14353,
  "1,8": 14883,
  "1,9": 15523,
  "1-": 3175,
  "1-0</w>": 25474,
  "1-1</w>": 24438,
  "1.": 2546,
  "1.0</w>": 13658,
  "1.1</w>": 11194,
  "1.2</w>": 10287,
  "1.3</w>": 11326,
  "1.4</w>": 11721,
  "1.5</w>": 6243,
  "1.6</w>": 11195,
  "1.7</w>": 12791,
  "1.8</w>": 12464,
  "1.9</w>": 14297,
  "1/": 28039,
  "1/2</w>": 12947,
  "10": 1424,
  "10,": 14203,
  "10,000</w>": 5489,
  "10-": 7349,
  "10.": 5491,
  "100": 13747,
  "100,000</w>": 7301,
  "100-": 15748,
  "1000</w>": 5972,
  "100</w>": 823,
  "100th</w>": 19604,
  "101</w>": 9588,
  "102</w>": 13552,
  "103</w>": 14535,
  "104</w>": 13972,
  "105</w>": 12442,
  "106</w>": 15007,
  "107</w>": 15882,
  "108</w>": 14661,
  "109</w>": 15675,
  "10</w>": 325,
  "10s</w>": 21643,
  "10th</w>": 5637,
  "11": 6940,
  "11,000</w>": 27207,
  "11-": 13451,
  "11.": 7295,
  "1100</w>": 26969,
  "110</w>": 9671,
  "111</w>": 15099,
  "112</w>": 15894,
  "113</w>": 17504,
  "114</w>": 18035,
  "115</w>": 15421,
  "116</w>": 18840,
  "117": 22768,
  "117</w>": 18252,
  "118</w>": 19384,
  "119": 20771,
  "119</w>": 19571,
  "11</w>": 565,
  "11th</w>": 5970,
  "12": 1828,
  "12,": 14860,
  "12,000</w>": 16496,
  "12-": 8287,
  "12.": 7428,
  "12.5</w>": 27477,
  "120": 16321,
  "1200</w>": 17094,
  "120</w>": 6764,
  "121</w>": 18040,
  "122</w>": 17579,
  "123</w>": 17756,
  "124</w>": 19521,
  "125</w>": 11149,
  "126</w>": 18402,
  "127</w>": 17839,
  "128</w>": 15769,
  "129</w>": 19741,
  "12</w>": 476,
  "12th</w>": 5317,
  "13": 1723,
  "13,": 16271,
  "13-": 15353,
  "13.": 7480,
  "1300</w>": 24573,
  "130</w>": 9723,
  "131</w>": 20556,
  "132</w>": 19857,
  "133</w>": 20116,
  "134</w>": 21384,
  "135</w>": 14789,
  "136</w>": 20980,
  "137</w>": 21531,
  "138</w>": 20676,
  "139</w>": 22817,
  "13</w>": 647,
  "13th</w>": 5457,
  "14": 1655,
  "14,": 16934,
  "14,000</w>": 27455,
  "14-": 13955,
  "14.": 7960,
  "1400</w>": 25912,
  "140</w>": 11209,
  "141</w>": 21182,
  "142</w>": 22644,
  "143</w>": 21917,
  "144</w>": 20504,
  "145</w>": 19002,
  "146</w>": 22726,
  "147</w>": 22089,
  "148</w>": 23793,
  "149</w>": 24639,
  "14</w>": 618,
  "14th</w>": 5846,
  "15": 863,
  "15,": 17351,
  "15,000</w>": 12329,
  "15-": 11485,
  "15.": 8588,
  "150,000</w>": 19998,
  "1500</w>": 11062,
  "150</w>": 5023,
  "151</w>": 22864,
  "152</w>": 20696,
  "153</w>": 23303,
  "154</w>": 22291,
  "155</w>": 19336,
  "156</w>": 22491,
  "157</w>": 24795,
  "158</w>": 24838,
  "15</w>": 521,
  "15th</w>": 5706,
  "16": 597,
  "16,": 16689,
  "16-": 12163,
  "16.": 9010,
  "1600</w>": 17866,
  "160</w>": 11254,
  "161</w>": 25048,
  "162</w>": 25341,
  "163</w>": 25160,
  "164</w>": 25506,
  "165</w>": 19821,
  "1660</w>": 22685,
  "166</w>": 23595,
  "167</w>": 22583,
  "168</w>": 24307,
  "169</w>": 26070,
  "16</w>": 605,
  "16th</w>": 5072,
  "17": 746,
  "17,": 17602,
  "17-": 17748,
  "17.": 9417,
  "1700</w>": 20834,
  "170</w>": 14333,
  "171</w>": 26914,
  "1750</w>": 23794,
  "1758</w>": 26957,
  "175</w>": 17185,
  "1760</w>": 25219,
  "1762</w>": 27223,
  "1763</w>": 23994,
  "1765</w>": 27196,
  "1768</w>": 25896,
  "1769</w>": 26759,
  "1770</w>": 22298,
  "1771</w>": 27353,
  "1772</w>": 22802,
  "1773</w>": 26341,
  "1774</w>": 22253,
  "1775</w>": 18380,
  "1776</w>": 16838,
  "1777</w>": 20168,
  "1778</w>": 20694,
  "1779</w>": 22256,
  "178": 27516,
  "1780</w>": 18630,
  "1781</w>": 21415,
  "1782</w>": 21342,
  "1783</w>": 18964,
  "1784</w>": 20711,
  "1785</w>": 22084,
  "1786</w>": 22940,
  "1787</w>": 20570,
  "1788</w>": 19558,
  "1789</w>": 16832,
  "179": 23363,
  "1790</w>": 16050,
  "1791</w>": 18130,
  "1792</w>": 16452,
  "1793</w>": 14945,
  "1794</w>": 15824,
  "1795</w>": 15829,
  "1796</w>": 16723,
  "1797</w>": 17270,
  "1798</w>": 15852,
  "1799</w>": 16870,
  "17</w>": 687,
  "17th</w>": 4857,
  "18": 5089,
  "18,": 18287,
  "18-": 11746,
  "18.": 9617,
  "180": 23355,
  "1800</w>": 10848,
  "1800s</w>": 21686,
  "1801</w>": 14826,
  "1802</w>": 16394,
  "1803</w>": 15076,
  "1804</w>": 16172,
  "1805</w>": 15961,
  "1806</w>": 14805,
  "1807</w>": 16007,
  "1808</w>": 15624,
  "1809</w>": 15340,
  "180</w>": 10244,
  "1810</w>": 13848,
  "1811</w>": 15901,
  "1812</w>": 10614,
  "1813</w>": 14252,
  "1814</w>": 12495,
  "1815</w>": 12232,
  "1816</w>": 14813,
  "1817</w>": 15518,
  "1818</w>": 14470,
  "1819</w>": 15160,
  "181</w>": 25913,
  "1820</w>": 12865,
  "1821</w>": 13644,
  "1822</w>": 15222,
  "1823</w>": 15429,
  "1824</w>": 13845,
  "1825</w>": 13493,
  "1826</w>": 14379,
  "1827</w>": 14887,
  "1828</w>": 13714,
  "1829</w>": 13995,
  "182</w>": 23576,
  "183": 24053,
  "1830</w>": 10717,
  "1830s</w>": 22468,
  "1831</w>": 12747,
  "1832</w>": 11602,
  "1833</w>": 13027,
  "1834</w>": 12538,
  "1835</w>": 11710,
  "1836</w>": 11397,
  "1837</w>": 11013,
  "1838</w>": 11416,
  "1839</w>": 11460,
  "183</w>": 26101,
  "184": 21536,
  "1840</w>": 9866,
  "1840s</w>": 21287,
  "1841</w>": 11211,
  "1842</w>": 11564,
  "1843</w>": 11741,
  "1844</w>": 11324,
  "1845</w>": 10735,
  "1846</w>": 10432,
  "1847</w>": 10219,
  "1848</w>": 8343,
  "1849</w>": 10070,
  "185": 19501,
  "1850</w>": 8468,
  "1850s</w>": 17686,
  "1851</w>": 9539,
  "1852</w>": 9794,
  "1853</w>": 9963,
  "1854</w>": 9204,
  "1855</w>": 9235,
  "1856</w>": 9428,
  "1857</w>": 8858,
  "1858</w>": 9371,
  "1859</w>": 8857,
  "185</w>": 20698,
  "186": 18589,
  "1860</w>": 7551,
  "1860s</w>": 17066,
  "1861</w>": 6826,
  "1862</w>": 6909,
  "1863</w>": 6946,
  "1864</w>": 6756,
  "1865</w>": 6668,
  "1866</w>": 8046,
  "1867</w>": 7811,
  "1868</w>": 7976,
  "1869</w>": 8375,
  "187": 17815,
  "1870</w>": 6919,
  "1870s</w>": 15726,
  "1871</w>": 7603,
  "1872</w>": 7880,
  "1873</w>": 8070,
  "1874</w>": 8005,
  "1875</w>": 7867,
  "1876</w>": 7595,
  "1877</w>": 8195,
  "1878</w>": 7602,
  "1879</w>": 7861,
  "187</w>": 26747,
  "188": 17340,
  "1880</w>": 6820,
  "1880s</w>": 12944,
  "1881</w>": 7131,
  "1882</w>": 7364,
  "1883</w>": 7543,
  "1884</w>": 7165,
  "1885</w>": 6546,
  "1886</w>": 7055,
  "1887</w>": 6924,
  "1888</w>": 6706,
  "1889</w>": 6476,
  "188</w>": 26143,
  "189": 16454,
  "1890</w>": 6050,
  "1890s</w>": 14129,
  "1891</w>": 6683,
  "1892</w>": 6520,
  "1893</w>": 6478,
  "1894</w>": 6538,
  "1895</w>": 6228,
  "1896</w>": 6213,
  "1897</w>": 6348,
  "1898</w>": 5945,
  "1899</w>": 6077,
  "189</w>": 26697,
  "18</w>": 464,
  "18th-century</w>": 22737,
  "18th</w>": 4106,
  "19": 3700,
  "19,": 19882,
  "19-": 21243,
  "19.": 9966,
  "190": 13271,
  "1900</w>": 4524,
  "1900s</w>": 17688,
  "1901</w>": 5467,
  "1902</w>": 5434,
  "1903</w>": 5506,
  "1904</w>": 5368,
  "1905</w>": 5080,
  "1906</w>": 5140,
  "1907</w>": 5176,
  "1908</w>": 4818,
  "1909</w>": 5229,
  "190</w>": 16506,
  "1910</w>": 4389,
  "1911</w>": 4684,
  "1912</w>": 4256,
  "1913</w>": 4696,
  "1914</w>": 3840,
  "1915</w>": 4411,
  "1916</w>": 4443,
  "1917</w>": 3800,
  "1918</w>": 3431,
  "1919</w>": 3740,
  "192": 14511,
  "1920</w>": 3564,
  "1920s</w>": 5558,
  "1921</w>": 4295,
  "1922</w>": 4205,
  "1923</w>": 4401,
  "1924</w>": 4158,
  "1925</w>": 4364,
  "1926</w>": 4441,
  "1927</w>": 4237,
  "1928</w>": 4023,
  "1929</w>": 3942,
  "193": 13268,
  "1930</w>": 3786,
  "1930s</w>": 4458,
  "1931</w>": 4260,
  "1932</w>": 4129,
  "1933</w>": 3910,
  "1934</w>": 3998,
  "1935</w>": 3822,
  "1936</w>": 3494,
  "1937</w>": 3673,
  "1938</w>": 3512,
  "1939</w>": 2961,
  "194": 12852,
  "1940</w>": 2866,
  "1940s</w>": 6816,
  "1941</w>": 2884,
  "1942</w>": 2806,
  "1943</w>": 2962,
  "1944</w>": 2578,
  "1945</w>": 2053,
  "1946</w>": 2900,
  "1947</w>": 3026,
  "1948</w>": 2817,
  "1949</w>": 3223,
  "195": 12067,
  "1950</w>": 3001,
  "1950s</w>": 3418,
  "1951</w>": 3410,
  "1952</w>": 3170,
  "1953</w>": 3304,
  "1954</w>": 3251,
  "1955</w>": 3171,
  "1956</w>": 2906,
  "1957</w>": 3083,
  "1958</w>": 3004,
  "1959</w>": 3020,
  "195</w>": 25821,
  "196": 10635,
  "1960</w>": 2565,
  "1960s</w>": 2654,
  "1961</w>": 2881,
  "1962</w>": 2741,
  "1963</w>": 2730,
  "1964</w>": 2408,
  "1965</w>": 2490,
  "1966</w>": 2509,
  "1967</w>": 2313,
  "1968</w>": 2138,
  "1969</w>": 2279,
  "197": 9788,
  "1970</w>": 2129,
  "1970s</w>": 2429,
  "1971</w>": 2260,
  "1972</w>": 2031,
  "1973</w>": 2204,
  "1974</w>": 2095,
  "1975</w>": 2128,
  "1976</w>": 2088,
  "1977</w>": 2211,
  "1978</w>": 2125,
  "1979</w>": 2018,
  "198": 8793,
  "1980</w>": 1861,
  "1980s</w>": 2345,
  "1981</w>": 2093,
  "1982</w>": 1967,
  "1983</w>": 1938,
  "1984</w>": 1827,
  "1985</w>": 1849,
  "1986</w>": 1795,
  "1987</w>": 1766,
  "1988</w>": 1676,
  "1989</w>": 1627,
  "199": 6904,
  "1990</w>": 1491,
  "1990s</w>": 2753,
  "1991</w>": 1490,
  "1992</w>": 1375,
  "1993</w>": 1482,
  "1994</w>": 1376,
  "1995</w>": 1357,
  "1996</w>": 1272,
  "1997</w>": 1290,
  "1998</w>": 1195,
  "1999</w>": 1118,
  "19</w>": 830,
  "19th-century</w>": 14119,
  "19th</w>": 2413,
  "1</w>": 145,
  "1a</w>": 18819,
  "1b</w>": 26981,
  "1s</w>": 27104,
  "1st</w>": 1835,
  "2": 541,
  "2,": 5483,
  "2,0": 16545,
  "2,000</w>": 6233,
  "2,2": 24986,
  "2,3": 21791,
  "2,4": 22029,
  "2,5": 22148,
  "2,500</w>": 15828,
  "2,6": 22343,
  "2,7": 21714,
  "2,8": 22964,
  "2,9": 22496,
  "2-": 2739,
  "2-1</w>": 18897,
  "2.": 2353,
  "2.0</w>": 11278,
  "2.1</w>": 14558,
  "2.2</w>": 14430,
  "2.3</w>": 14590,
  "2.4</w>": 14390,
  "2.5</w>": 7366,
  "2.6</w>": 16305,
  "2.7</w>": 15865,
  "2.8</w>": 16235,
  "2.9</w>": 17648,
  "20": 3452,
  "20,": 19914,
  "20,000</w>": 7689,
  "20-": 9732,
  "20.": 9546,
  "200": 5342,
  "200,000</w>": 13058,
  "200-": 24002,
  "2000</w>": 764,
  "2000s</w>": 8189,
  "2001</w>": 965,
  "2002</w>": 954,
  "2003</w>": 886,
  "2004</w>": 738,
  "2005</w>": 660,
  "2006-": 23275,
  "2006</w>": 492,
  "2007-": 22035,
  "2007</w>": 501,
  "2008-": 21594,
  "2008</w>": 452,
  "2009-": 21573,
  "2009</w>": 449,
  "200</w>": 2136,
  "201": 8713,
  "2010-": 20049,
  "2010</w>": 366,
  "2011-": 20456,
  "2011</w>": 404,
  "2012-": 23085,
  "2012</w>": 427,
  "2013-": 22275,
  "2013</w>": 458,
  "2014-": 22227,
  "2014</w>": 465,
  "2015-": 24724,
  "2015</w>": 498,
  "2016</w>": 529,
  "2017</w>": 609,
  "2018</w>": 1003,
  "2019</w>": 10956,
  "201</w>": 23359,
  "2020</w>": 13569,
  "202</w>": 22927,
  "203</w>": 27330,
  "205</w>": 23625,
  "206</w>": 26677,
  "208</w>": 26991,
  "20</w>": 490,
  "20s</w>": 14573,
  "20th-century</w>": 23596,
  "20th</w>": 2542,
  "21": 17142,
  "21-": 20909,
  "210</w>": 18400,
  "215</w>": 26712,
  "21</w>": 794,
  "21st</w>": 7104,
  "22": 9992,
  "22-": 23972,
  "22.": 10608,
  "220</w>": 15376,
  "225</w>": 22966,
  "22</w>": 843,
  "22nd</w>": 15669,
  "23": 9266,
  "23,": 23775,
  "23-": 24557,
  "23.": 10700,
  "230</w>": 19692,
  "23</w>": 898,
  "23rd</w>": 15876,
  "24": 8463,
  "24,": 25038,
  "24-": 17107,
  "24-hour</w>": 23557,
  "24.": 10041,
  "240</w>": 17481,
  "24</w>": 727,
  "24th</w>": 15009,
  "25": 3982,
  "25,": 23480,
  "25,000</w>": 12203,
  "25-": 15790,
  "25.": 9846,
  "250,000</w>": 17492,
  "250</w>": 6004,
  "256</w>": 25479,
  "25</w>": 620,
  "25th</w>": 11557,
  "26": 11124,
  "26,": 22568,
  "26-": 27024,
  "26.": 10239,
  "260</w>": 22560,
  "26</w>": 981,
  "26th</w>": 17130,
  "27": 9585,
  "27,": 25473,
  "27-": 26736,
  "27.": 10389,
  "270</w>": 22157,
  "27</w>": 985,
  "27th</w>": 17220,
  "28": 12062,
  "28,": 25828,
  "28-": 25565,
  "28.": 10739,
  "280</w>": 22056,
  "28</w>": 969,
  "28th</w>": 18061,
  "29": 11215,
  "29,": 27528,
  "29.": 11379,
  "29</w>": 1089,
  "29th</w>": 19076,
  "2</w>": 163,
  "2a</w>": 24509,
  "2d</w>": 14028,
  "2nd</w>": 2201,
  "3": 479,
  "3,": 3946,
  "3,0": 25247,
  "3,000</w>": 7153,
  "3,500</w>": 26589,
  "3-": 2691,
  "3.": 3768,
  "3.0</w>": 15562,
  "3.1</w>": 16517,
  "3.2</w>": 16028,
  "3.3</w>": 15262,
  "3.4</w>": 18302,
  "3.5</w>": 8789,
  "3.6</w>": 17609,
  "3.7</w>": 17294,
  "3.8</w>": 17811,
  "3.9</w>": 19025,
  "30": 3994,
  "30,": 23459,
  "30,000</w>": 10816,
  "30-": 10708,
  "300,000</w>": 16227,
  "3000</w>": 12613,
  "300</w>": 3425,
  "301</w>": 25078,
  "303</w>": 27556,
  "30</w>": 561,
  "30s</w>": 22977,
  "30th</w>": 14709,
  "31</w>": 1238,
  "31st</w>": 20501,
  "32": 19072,
  "32-": 21121,
  "320</w>": 20981,
  "32</w>": 2462,
  "32nd</w>": 25229,
  "33": 14082,
  "330</w>": 24060,
  "33</w>": 2767,
  "33rd</w>": 25272,
  "34": 16182,
  "34.": 16360,
  "34</w>": 2986,
  "34th</w>": 24816,
  "35": 10813,
  "35,000</w>": 24036,
  "35.": 16152,
  "350</w>": 11050,
  "35</w>": 2116,
  "35th</w>": 24673,
  "36": 13102,
  "36.": 17343,
  "360</w>": 10760,
  "365</w>": 27380,
  "36</w>": 2898,
  "36th</w>": 26331,
  "37": 14539,
  "37.": 18188,
  "37</w>": 3225,
  "38": 15462,
  "38.": 18054,
  "380</w>": 27194,
  "38</w>": 3023,
  "38th</w>": 26731,
  "39": 15982,
  "39.": 18363,
  "39</w>": 3502,
  "39th</w>": 27407,
  "3</w>": 222,
  "3a</w>": 26026,
  "3d</w>": 6653,
  "3rd</w>": 2583,
  "4": 512,
  "4,": 4690,
  "4,000</w>": 9407,
  "4-": 2722,
  "4.": 5881,
  "4.0</w>": 19559,
  "4.1</w>": 19630,
  "4.2</w>": 19480,
  "4.3</w>": 18895,
  "4.4</w>": 20543,
  "4.5</w>": 11414,
  "4.6</w>": 20610,
  "4.7</w>": 19729,
  "4.8</w>": 20760,
  "4.9</w>": 21045,
  "40": 4082,
  "40,000</w>": 13049,
  "40-": 14127,
  "400,000</w>": 21606,
  "4000</w>": 22782,
  "400</w>": 3558,
  "40</w>": 1171,
  "40s</w>": 24861,
  "40th</w>": 18509,
  "41</w>": 3363,
  "42</w>": 3181,
  "42nd</w>": 26151,
  "43": 21900,
  "43</w>": 3654,
  "44": 18272,
  "44</w>": 2463,
  "45": 13696,
  "450</w>": 13910,
  "45</w>": 1857,
  "46": 18803,
  "46</w>": 3647,
  "47": 15688,
  "47.": 20705,
  "47</w>": 3435,
  "48": 18672,
  "48.": 19449,
  "48</w>": 3234,
  "49": 16820,
  "49.": 19492,
  "49</w>": 3587,
  "49ers</w>": 20289,
  "4</w>": 268,
  "4th</w>": 2873,
  "5": 595,
  "5,": 5380,
  "5,000</w>": 4999,
  "5-": 2824,
  "5.": 6419,
  "5.0</w>": 21752,
  "5.1</w>": 18538,
  "5.2</w>": 21233,
  "5.3</w>": 20355,
  "5.4</w>": 21873,
  "5.5</w>": 13813,
  "5.6</w>": 20731,
  "5.7</w>": 20199,
  "5.8</w>": 21995,
  "5.9</w>": 21274,
  "50": 4413,
  "50,000</w>": 7060,
  "50-": 14762,
  "500,000</w>": 12275,
  "5000</w>": 14374,
  "500</w>": 2292,
  "501</w>": 18628,
  "50</w>": 1147,
  "50s</w>": 22497,
  "50th</w>": 13765,
  "51</w>": 3824,
  "52</w>": 3705,
  "53</w>": 4168,
  "54": 26383,
  "54</w>": 3962,
  "55": 19078,
  "550</w>": 20267,
  "55</w>": 3333,
  "56": 24208,
  "56</w>": 4071,
  "57": 21178,
  "57</w>": 4292,
  "58": 27185,
  "58</w>": 4556,
  "59": 27500,
  "59</w>": 4384,
  "5</w>": 326,
  "5th</w>": 3053,
  "6": 731,
  "6,": 5959,
  "6,000</w>": 9543,
  "6-": 3271,
  "6.": 7714,
  "6.0</w>": 24098,
  "6.1</w>": 22653,
  "6.2</w>": 22399,
  "6.3</w>": 21060,
  "6.4</w>": 23463,
  "6.5</w>": 13643,
  "6.6</w>": 23727,
  "6.7</w>": 21116,
  "6.8</w>": 23076,
  "6.9</w>": 22754,
  "60": 5785,
  "60,000</w>": 17059,
  "60-": 21597,
  "600,000</w>": 27123,
  "600</w>": 5125,
  "60</w>": 1855,
  "60s</w>": 16982,
  "60th</w>": 24466,
  "61</w>": 4184,
  "62</w>": 4308,
  "63</w>": 4535,
  "64": 26948,
  "64</w>": 2352,
  "65": 24153,
  "650</w>": 20712,
  "65</w>": 1742,
  "66": 26358,
  "66</w>": 3770,
  "67</w>": 4145,
  "68</w>": 4593,
  "69</w>": 4722,
  "6</w>": 355,
  "6th</w>": 3657,
  "7": 742,
  "7,": 6367,
  "7,000</w>": 12390,
  "7-": 3971,
  "7.": 7169,
  "7.1</w>": 23101,
  "7.2</w>": 25024,
  "7.3</w>": 24519,
  "7.4</w>": 25876,
  "7.5</w>": 12519,
  "7.6</w>": 25894,
  "7.7</w>": 24228,
  "7.8</w>": 25673,
  "7.9</w>": 25814,
  "70": 11752,
  "70,000</w>": 24235,
  "700</w>": 6886,
  "70</w>": 2213,
  "70s</w>": 15103,
  "71</w>": 4603,
  "72</w>": 4269,
  "73</w>": 4824,
  "74</w>": 4833,
  "75": 23295,
  "750</w>": 12336,
  "75</w>": 2623,
  "76": 19965,
  "76</w>": 4645,
  "77": 26999,
  "77</w>": 4596,
  "78": 26637,
  "78</w>": 4636,
  "79</w>": 4899,
  "7</w>": 435,
  "7th</w>": 3520,
  "8": 862,
  "8,": 7148,
  "8,000</w>": 10494,
  "8-": 3950,
  "8.": 6449,
  "8.1</w>": 24243,
  "8.2</w>": 25743,
  "8.3</w>": 24975,
  "8.5</w>": 15326,
  "8.6</w>": 27261,
  "8.8</w>": 26188,
  "8.9</w>": 27479,
  "80": 5106,
  "80,000</w>": 22702,
  "800</w>": 5453,
  "80</w>": 2085,
  "80s</w>": 15128,
  "81</w>": 4752,
  "82</w>": 4691,
  "83</w>": 4845,
  "84</w>": 4772,
  "850</w>": 25634,
  "85</w>": 3780,
  "86</w>": 4366,
  "87</w>": 4856,
  "88": 25174,
  "88</w>": 4457,
  "89.": 26544,
  "89</w>": 4895,
  "8</w>": 486,
  "8th</w>": 4119,
  "9": 781,
  "9,": 7837,
  "9,000</w>": 19542,
  "9-": 4590,
  "9.": 4404,
  "9.5</w>": 16291,
  "90": 14238,
  "900</w>": 9555,
  "90</w>": 2167,
  "90s</w>": 16508,
  "911</w>": 24555,
  "91</w>": 5041,
  "92</w>": 4692,
  "93</w>": 4929,
  "94</w>": 5006,
  "95</w>": 3642,
  "96.": 19016,
  "96</w>": 4677,
  "97.": 17124,
  "97</w>": 4861,
  "98.": 16717,
  "98</w>": 4777,
  "99": 24432,
  "99.": 15448,
  "99</w>": 4152,
  "9</w>": 530,
  "9th</w>": 4261,
  ":": 9390,
  ":</w>": 67,
  ";</w>": 84,
  "<": 28201,
  "</s>": 1,
  "<</w>": 884,
  "<<</w>": 19202,
  "<pad>": 2,
  "<s>": 0,
  "<special0>": 4,
  "<special1>": 5,
  "<special2>": 6,
  "<special3>": 7,
  "<special4>": 8,
  "<special5>": 9,
  "<special6>": 10,
  "<special7>": 11,
  "<special8>": 12,
  "<special9>": 13,
  "<unk>": 3,
  "=": 29070,
  "=</w>": 983,
  ">": 28880,
  "></w>": 854,
  ">></w>": 18554,
  "?": 5677,
  "?-": 11368,
  "?</w>": 51,
  "??": 21560,
  "??</w>": 3174,
  "???</w>": 3276,
  "????": 10266,
  "????</w>": 4469,
  "?????</w>": 5909,
  "??????</w>": 7335,
  "???????</w>": 7962,
  "????????</w>": 10128,
  "?????????</w>": 14275,
  "??????????</w>": 18860,
  "@</w>": 15120,
  "[</w>": 819,
  "\\": 29959,
  "\\</w>": 17944,
  "]</w>": 806,
  "^": 29287,
  "^</w>": 27828,
  "_": 28318,
  "_</w>": 905,
  "__": 29455,
  "____": 27460,
  "`": 13679,
  "`</w>": 29103,
  "a": 360,
  "a-": 1373,
  "a-</w>": 26306,
  "a-based</w>": 23382,
  "a.": 4104,
  "a.</w>": 2114,
  "a.d.</w>": 24139,
  "a.k.a.</w>": 22229,
  "a.m.</w>": 9026,
  "a1</w>": 16947,
  "a2</w>": 24457,
  "a</w>": 22,
  "aa": 19824,
  "aa</w>": 6039,
  "aaa</w>": 14870,
  "aaf</w>": 28839,
  "aan</w>": 13880,
  "aar": 12846,
  "aar</w>": 23513,
  "aaron</w>": 6974,
  "ab": 558,
  "ab</w>": 4802,
  "aba</w>": 9072,
  "abad": 22976,
  "abad</w>": 5060,
  "aband": 28295,
  "abandon": 29748,
  "abandon</w>": 10680,
  "abandoned</w>": 3213,
  "abandoning</w>": 21766,
  "abandonment</w>": 25362,
  "abbas</w>": 19823,
  "abbey</w>": 5111,
  "abbo": 28775,
  "abbot</w>": 12366,
  "abbott</w>": 16966,
  "abbrevi": 28656,
  "abbreviated</w>": 12151,
  "abbreviation</w>": 25603,
  "abby</w>": 8770,
  "abc</w>": 5179,
  "abd</w>": 24701,
  "abdic": 26161,
  "abdomen</w>": 14572,
  "abdomin": 29713,
  "abdominal</w>": 25576,
  "abdu": 28185,
  "abduc": 27270,
  "abducted</w>": 22792,
  "abduction</w>": 27382,
  "abdul": 22521,
  "abdul</w>": 12177,
  "abdullah</w>": 16500,
  "abe": 21716,
  "abe</w>": 9769,
  "abel": 24712,
  "abel</w>": 16186,
  "aber": 8687,
  "aberdeen</w>": 12629,
  "abi": 13421,
  "abi</w>": 17016,
  "abig": 29977,
  "abigail</w>": 18150,
  "abili": 21440,
  "abilities</w>": 5700,
  "ability</w>": 1513,
  "ablan": 26865,
  "able</w>": 358,
  "ables</w>": 13875,
  "abli": 27643,
  "ablo</w>": 27799,
  "ably</w>": 3929,
  "abnormal</w>": 22965,
  "abo": 5613,
  "abo</w>": 25639,
  "aboard</w>": 6296,
  "abol": 25082,
  "aboli": 18320,
  "abolic</w>": 28165,
  "abolished</w>": 8453,
  "abolition</w>": 17323,
  "abor": 14725,
  "aboriginal</w>": 9679,
  "abortion</w>": 11600,
  "about</w>": 85,
  "abouts</w>": 28996,
  "above</w>": 837,
  "abra": 16928,
  "abraham</w>": 8231,
  "abroad</w>": 6018,
  "abrup": 29643,
  "abrupt</w>": 20526,
  "abruptly</w>": 8511,
  "abs": 28229,
  "abs</w>": 19535,
  "absence</w>": 5410,
  "absent</w>": 10438,
  "absently</w>": 23224,
  "absolu": 28460,
  "absolute</w>": 7070,
  "absolutely</w>": 5940,
  "absor": 25000,
  "absorb</w>": 18312,
  "absorbed</w>": 8427,
  "absorbing</w>": 23367,
  "absorption</w>": 17702,
  "abstr": 15331,
  "abstract</w>": 10503,
  "absur": 27682,
  "absurd</w>": 20898,
  "abu": 9877,
  "abu</w>": 7905,
  "abun": 28180,
  "abundance</w>": 15131,
  "abundant</w>": 13376,
  "abuse</w>": 6067,
  "abused</w>": 18571,
  "abuses</w>": 24026,
  "abusive</w>": 23259,
  "aby": 23768,
  "abyss</w>": 26135,
  "ac": 667,
  "ac</w>": 2513,
  "aca</w>": 9045,
  "acacia</w>": 26687,
  "acade": 24833,
  "academia</w>": 20114,
  "academic": 24425,
  "academic</w>": 2340,
  "academics</w>": 16132,
  "academie</w>": 24356,
  "academies</w>": 23982,
  "academy</w>": 1157,
  "acadi": 23749,
  "acan</w>": 19924,
  "acao</w>": 22487,
  "acc": 16221,
  "acc</w>": 16873,
  "acceler": 20282,
  "accelerate</w>": 26858,
  "accelerated</w>": 15681,
  "acceleration</w>": 18640,
  "accelerator</w>": 27397,
  "accent</w>": 9434,
  "accep": 27989,
  "accept</w>": 3777,
  "acceptable</w>": 12089,
  "acceptance</w>": 9785,
  "accepted</w>": 2299,
  "accepting</w>": 10372,
  "accepts</w>": 13849,
  "acces": 27015,
  "access": 26205,
  "access</w>": 1515,
  "accessed</w>": 13379,
  "accessi": 25761,
  "accessible</w>": 6484,
  "accession</w>": 19030,
  "accessories</w>": 18846,
  "acci": 16407,
  "accident</w>": 3589,
  "accidental</w>": 18831,
  "accidentally</w>": 9052,
  "accidents</w>": 13943,
  "acclaim</w>": 10311,
  "acclaimed</w>": 10009,
  "accol": 22305,
  "accommo": 13466,
  "accommodate</w>": 8155,
  "accommodation</w>": 11598,
  "accomp": 29813,
  "accompan": 30132,
  "accompani": 29076,
  "accompanied</w>": 4312,
  "accompanim": 29726,
  "accompaniment</w>": 26668,
  "accompany</w>": 12975,
  "accompanying</w>": 10864,
  "accompli": 14457,
  "accomplish</w>": 15532,
  "accomplished</w>": 8326,
  "accomplishments</w>": 19326,
  "accor": 13785,
  "accord</w>": 17240,
  "accordance</w>": 10636,
  "according</w>": 499,
  "accordingly</w>": 12123,
  "accoun": 16139,
  "account</w>": 2532,
  "accountability</w>": 20893,
  "accountant</w>": 21145,
  "accounted</w>": 14679,
  "accounting</w>": 9905,
  "accounts</w>": 5047,
  "accred": 28891,
  "accreditation</w>": 16449,
  "accredited</w>": 11437,
  "accu": 12858,
  "accum": 15962,
  "accumulated</w>": 15827,
  "accumulation</w>": 22996,
  "accur": 28496,
  "accuracy</w>": 10576,
  "accurate</w>": 6741,
  "accurately</w>": 14456,
  "accusation</w>": 21266,
  "accusations</w>": 13835,
  "accused</w>": 4225,
  "accusing</w>": 17867,
  "accustom": 30100,
  "accustomed</w>": 17902,
  "ace": 9521,
  "ace</w>": 4453,
  "aceae</w>": 6812,
  "aces</w>": 13204,
  "acet": 18602,
  "acety": 18474,
  "ach": 1996,
  "ach</w>": 3005,
  "acha": 14058,
  "acha</w>": 21379,
  "achal</w>": 26836,
  "acharya</w>": 25028,
  "ache</w>": 7298,
  "ached</w>": 8386,
  "acher</w>": 25904,
  "acheron</w>": 22742,
  "achers</w>": 19577,
  "aches</w>": 8889,
  "achi": 6217,
  "achi</w>": 11374,
  "achiev": 27725,
  "achieve</w>": 5097,
  "achieved</w>": 3163,
  "achievement</w>": 6121,
  "achievements</w>": 9842,
  "achieving</w>": 10830,
  "achim</w>": 29541,
  "aching</w>": 8474,
  "achment</w>": 25725,
  "achments</w>": 23187,
  "acht</w>": 14432,
  "achy": 23924,
  "aci": 5857,
  "acia</w>": 28071,
  "acid</w>": 4674,
  "acids</w>": 13159,
  "acies</w>": 15770,
  "acio</w>": 16310,
  "acion</w>": 13274,
  "acious</w>": 15620,
  "ack": 5519,
  "ack</w>": 5371,
  "acked</w>": 18016,
  "acker</w>": 9608,
  "ackers</w>": 27859,
  "acking</w>": 20119,
  "acknowle": 27875,
  "acknowledg": 21137,
  "acknowledge</w>": 13918,
  "acknowledged</w>": 8244,
  "acknowledging</w>": 24462,
  "acks</w>": 13001,
  "acle</w>": 15307,
  "acles</w>": 14557,
  "aco": 14904,
  "aco</w>": 11676,
  "acom": 27285,
  "acon": 24291,
  "acon</w>": 28373,
  "acons</w>": 26737,
  "acou": 23500,
  "acoustic</w>": 8322,
  "acp</w>": 22731,
  "acqu": 17644,
  "acquain": 27823,
  "acquaintance</w>": 20472,
  "acquainted</w>": 20089,
  "acqui": 24526,
  "acquire</w>": 9589,
  "acquired</w>": 2099,
  "acquiring</w>": 14532,
  "acquisi": 29851,
  "acquisition</w>": 7132,
  "acquisitions</w>": 22066,
  "acquitted</w>": 20675,
  "acre</w>": 9562,
  "acres</w>": 6046,
  "acri": 28030,
  "acritic</w>": 29582,
  "acro": 17703,
  "acron": 29172,
  "acronym</w>": 21855,
  "across</w>": 468,
  "acs</w>": 13912,
  "act</w>": 656,
  "acted</w>": 4248,
  "acti": 10062,
  "acting</w>": 1948,
  "action</w>": 1103,
  "actions</w>": 2833,
  "activ": 15164,
  "activate</w>": 19968,
  "activated</w>": 7752,
  "activation</w>": 11918,
  "active</w>": 1337,
  "actively</w>": 7622,
  "activi": 29751,
  "activism</w>": 18463,
  "activist</w>": 7284,
  "activists</w>": 9787,
  "activities</w>": 1749,
  "activity</w>": 2295,
  "actor</w>": 1987,
  "actors</w>": 4617,
  "actress</w>": 2836,
  "actresses</w>": 21646,
  "acts</w>": 2728,
  "actu": 12787,
  "actual</w>": 3712,
  "actually</w>": 1094,
  "acu": 14141,
  "acul": 27350,
  "acute</w>": 11763,
  "acy</w>": 7213,
  "ad": 579,
  "ad-": 16232,
  "ad</w>": 1142,
  "ada</w>": 2194,
  "adam": 11732,
  "adam</w>": 2868,
  "adams</w>": 5375,
  "adan</w>": 21124,
  "adap": 10913,
  "adapt</w>": 16926,
  "adaptation</w>": 6234,
  "adaptations</w>": 18650,
  "adapted</w>": 4947,
  "adaptive</w>": 22192,
  "adas</w>": 24942,
  "add</w>": 4683,
  "added</w>": 933,
  "adder</w>": 28596,
  "addi": 22059,
  "addic": 20146,
  "addicted</w>": 26884,
  "addiction</w>": 14363,
  "adding</w>": 4480,
  "addison</w>": 23165,
  "addition</w>": 930,
  "additional</w>": 1608,
  "additionally</w>": 4372,
  "additions</w>": 13769,
  "address</w>": 3491,
  "addressed</w>": 7528,
  "addresses</w>": 12164,
  "addressing</w>": 13521,
  "adds</w>": 9756,
  "ade": 5299,
  "ade</w>": 2572,
  "aded</w>": 7254,
  "adel": 11246,
  "adel</w>": 28395,
  "adelaide</w>": 7038,
  "adele</w>": 20901,
  "aden": 19362,
  "aden</w>": 12658,
  "adena</w>": 29707,
  "adequ": 28657,
  "adequate</w>": 12146,
  "adequately</w>": 24884,
  "ader</w>": 13401,
  "aders</w>": 28307,
  "ades</w>": 4114,
  "adhe": 20907,
  "adher": 13839,
  "adi": 4658,
  "adi</w>": 8149,
  "adic</w>": 21678,
  "adin</w>": 23766,
  "ading</w>": 8130,
  "adio</w>": 29317,
  "adjac": 29622,
  "adjacent</w>": 4323,
  "adjoining</w>": 14166,
  "adju": 10785,
  "adjunct</w>": 24103,
  "adjust": 27426,
  "adjust</w>": 15110,
  "adjusted</w>": 10140,
  "adjusting</w>": 21311,
  "adjustment</w>": 22348,
  "adler</w>": 21062,
  "adm": 29183,
  "admini": 27886,
  "administer</w>": 24586,
  "administered</w>": 7893,
  "administr": 19193,
  "administration</w>": 1789,
  "administrative</w>": 2182,
  "administratively</w>": 26625,
  "administrator</w>": 9178,
  "administrators</w>": 17040,
  "admir": 15415,
  "admiral</w>": 5244,
  "admiralty</w>": 15690,
  "admiration</w>": 18624,
  "admire</w>": 21979,
  "admired</w>": 12993,
  "admiring</w>": 27305,
  "admission</w>": 9337,
  "admissions</w>": 23073,
  "admit</w>": 5256,
  "admits</w>": 14931,
  "admitted</w>": 3428,
  "admitting</w>": 19421,
  "ado": 9574,
  "ado</w>": 4142,
  "adobe</w>": 21846,
  "adoes</w>": 29872,
  "adol": 12556,
  "adole": 19344,
  "adolescent</w>": 23828,
  "adolf</w>": 14085,
  "adop": 14609,
  "adopt</w>": 11306,
  "adopted</w>": 2656,
  "adopting</w>": 17534,
  "adoption</w>": 9761,
  "ador": 16236,
  "ador</w>": 12822,
  "adorable</w>": 26380,
  "adores</w>": 22137,
  "adorned</w>": 19390,
  "adors</w>": 29259,
  "ados</w>": 24174,
  "adox</w>": 29847,
  "adren": 27732,
  "adrenaline</w>": 15850,
  "adri": 9359,
  "adrian</w>": 7979,
  "adriatic</w>": 27070,
  "ads</w>": 5058,
  "adu</w>": 26119,
  "adul": 16515,
  "adult</w>": 3308,
  "adulthood</w>": 22823,
  "adults</w>": 4889,
  "adv": 12413,
  "advan": 27970,
  "advance</w>": 3798,
  "advanced</w>": 2450,
  "advancement</w>": 13886,
  "advances</w>": 11538,
  "advancing</w>": 10655,
  "advant": 18980,
  "advantage</w>": 3672,
  "advantages</w>": 11266,
  "advent": 26695,
  "advent</w>": 14799,
  "adventi": 24255,
  "adventur": 23471,
  "adventure</w>": 5553,
  "adventures</w>": 7401,
  "adver": 18027,
  "adverse</w>": 17031,
  "adverti": 16436,
  "advertised</w>": 18371,
  "advertisement</w>": 16739,
  "advertisements</w>": 15362,
  "advertising</w>": 5531,
  "advice</w>": 5022,
  "advis": 19911,
  "advise</w>": 20191,
  "advised</w>": 8901,
  "adviser</w>": 12568,
  "advisor</w>": 8397,
  "advisors</w>": 21390,
  "advisory</w>": 6936,
  "advoc": 29328,
  "advocacy</w>": 13095,
  "advocate</w>": 7797,
  "advocated</w>": 11807,
  "advocates</w>": 13667,
  "advocating</w>": 22732,
  "ady</w>": 10710,
  "ae": 5630,
  "ae</w>": 3474,
  "aea</w>": 21478,
  "aer": 8200,
  "aer</w>": 26903,
  "aerial</w>": 9472,
  "aero": 10352,
  "aero</w>": 25108,
  "aerodrome</w>": 27303,
  "aeronau": 16335,
  "aerospace</w>": 15602,
  "aes": 26125,
  "aes</w>": 24415,
  "aesthe": 28285,
  "aesthetic</w>": 12873,
  "aesthetics</w>": 24840,
  "af": 1989,
  "af</w>": 9609,
  "afar</w>": 21385,
  "afb</w>": 26066,
  "afc</w>": 11297,
  "aff": 5173,
  "aff</w>": 23043,
  "affair</w>": 5929,
  "affairs</w>": 2554,
  "affe</w>": 27974,
  "affect</w>": 6746,
  "affected</w>": 3790,
  "affecting</w>": 13092,
  "affection": 20426,
  "affection</w>": 12647,
  "affects</w>": 14486,
  "affili": 27805,
  "affiliate</w>": 8199,
  "affiliated</w>": 5842,
  "affiliates</w>": 19893,
  "affiliation</w>": 13356,
  "affinity</w>": 18522,
  "affir": 12326,
  "affirmed</w>": 17151,
  "afflic": 23611,
  "affluent</w>": 25464,
  "affor": 28357,
  "afford": 29316,
  "afford</w>": 8248,
  "affordable</w>": 16411,
  "afforded</w>": 25844,
  "afgh": 28449,
  "afghan</w>": 13338,
  "afghani": 29902,
  "afghanistan</w>": 6389,
  "afi</w>": 16940,
  "afl</w>": 9686,
  "afore": 29380,
  "aforementioned</w>": 18939,
  "afraid</w>": 2844,
  "afri": 16331,
  "afric": 16546,
  "africa</w>": 1381,
  "african-american</w>": 10003,
  "african</w>": 1525,
  "africans</w>": 20023,
  "afro": 27749,
  "afro-": 24767,
  "aft</w>": 14105,
  "after": 8736,
  "after-": 26261,
  "after</w>": 74,
  "aftermath</w>": 10383,
  "afternoon</w>": 3611,
  "afterward</w>": 9130,
  "afterwards</w>": 4517,
  "ag": 707,
  "ag</w>": 6575,
  "aga": 6969,
  "aga</w>": 5663,
  "again": 27537,
  "again</w>": 174,
  "against</w>": 139,
  "agan</w>": 11911,
  "agar": 18448,
  "agar</w>": 13958,
  "agara</w>": 28837,
  "agas": 29159,
  "agawa</w>": 23767,
  "agaz": 29101,
  "age": 19898,
  "age-": 12954,
  "age</w>": 256,
  "aged</w>": 2277,
  "agement</w>": 29534,
  "agen</w>": 21623,
  "agencies</w>": 5905,
  "agency</w>": 2508,
  "agenda</w>": 11879,
  "agent</w>": 2538,
  "agents</w>": 4865,
  "ageous</w>": 20192,
  "ager</w>": 10547,
  "agers</w>": 28536,
  "ages</w>": 2107,
  "ageway</w>": 20559,
  "aggrav": 20236,
  "aggre": 10851,
  "aggregate</w>": 8605,
  "aggregator</w>": 26403,
  "aggression</w>": 16328,
  "aggressive</w>": 8892,
  "agh": 24009,
  "agh</w>": 11102,
  "aghan</w>": 21771,
  "agher</w>": 28954,
  "agi": 18017,
  "agi</w>": 15903,
  "aging</w>": 6055,
  "agitated</w>": 23938,
  "agitation</w>": 25350,
  "agne</w>": 28134,
  "agnes</w>": 12059,
  "ago": 9343,
  "ago</w>": 1333,
  "agon": 17751,
  "agon</w>": 21802,
  "agoni": 26388,
  "agonist</w>": 28620,
  "agonists</w>": 27806,
  "agony</w>": 13160,
  "agr": 27611,
  "agra</w>": 27297,
  "agram</w>": 19715,
  "agrarian</w>": 27253,
  "agre": 22505,
  "agree</w>": 4766,
  "agreed</w>": 1757,
  "agreeing</w>": 16178,
  "agreement</w>": 2178,
  "agreements</w>": 10691,
  "agrees</w>": 9171,
  "agri": 18388,
  "agricul": 28556,
  "agricultural</w>": 3612,
  "agriculture</w>": 4244,
  "agu": 4130,
  "agua</w>": 22219,
  "ague</w>": 16368,
  "agues</w>": 28821,
  "aguil": 23457,
  "ah": 3204,
  "ah</w>": 1257,
  "aha</w>": 16025,
  "ahan</w>": 22230,
  "ahead</w>": 2094,
  "ahi</w>": 23829,
  "ahl</w>": 19561,
  "ahmad</w>": 11579,
  "ahmed</w>": 11177,
  "ahs</w>": 18403,
  "ahu": 21325,
  "ahu</w>": 19297,
  "ai": 1554,
  "ai</w>": 1916,
  "aia</w>": 20433,
  "aiah</w>": 28750,
  "aic</w>": 19991,
  "aid</w>": 2655,
  "aidan</w>": 12599,
  "aide</w>": 18497,
  "aided</w>": 11243,
  "aiden</w>": 15556,
  "aids</w>": 7936,
  "aig": 14320,
  "ail": 8167,
  "ail</w>": 5790,
  "ailed</w>": 20766,
  "ailing</w>": 27646,
  "ails</w>": 19047,
  "aim</w>": 5096,
  "aimed</w>": 5363,
  "aimee</w>": 27517,
  "aiming</w>": 14194,
  "aims</w>": 8261,
  "ain": 10637,
  "ain</w>": 6064,
  "aine</w>": 12569,
  "ains</w>": 29186,
  "aint": 29390,
  "aint</w>": 15106,
  "aintance</w>": 30074,
  "air": 2113,
  "air-": 11118,
  "air</w>": 317,
  "airborne</w>": 11229,
  "airbus</w>": 25462,
  "aircraft</w>": 1270,
  "aire</w>": 7513,
  "aired</w>": 3329,
  "aires</w>": 7630,
  "airfield</w>": 9600,
  "airing</w>": 8313,
  "airline</w>": 7997,
  "airlines</w>": 7147,
  "airplane</w>": 14548,
  "airplanes</w>": 27471,
  "airplay</w>": 16175,
  "airport</w>": 1523,
  "airports</w>": 13678,
  "airs</w>": 14415,
  "airways</w>": 14965,
  "airy</w>": 28155,
  "ais": 9742,
  "ais</w>": 7348,
  "aisle</w>": 12612,
  "ait": 23693,
  "aj": 5162,
  "aj</w>": 6867,
  "aja</w>": 15514,
  "ajax</w>": 20999,
  "aji</w>": 25718,
  "ajo</w>": 23411,
  "ak": 990,
  "ak</w>": 2330,
  "aka</w>": 4559,
  "akade": 24667,
  "akbar</w>": 24542,
  "ake": 26611,
  "ake</w>": 12433,
  "aked</w>": 12087,
  "aker</w>": 12486,
  "akers</w>": 12960,
  "akes</w>": 20030,
  "akh": 14551,
  "akh</w>": 15235,
  "aki": 17256,
  "aki</w>": 5350,
  "akin</w>": 13016,
  "aking</w>": 11658,
  "akis</w>": 27262,
  "ako</w>": 20481,
  "akov</w>": 26985,
  "akrish": 26251,
  "akron</w>": 26955,
  "aks</w>": 9590,
  "aku": 16418,
  "aky</w>": 19150,
  "al": 247,
  "al-": 1129,
  "al-qaeda</w>": 26931,
  "al.</w>": 23067,
  "al</w>": 367,
  "ala": 26859,
  "ala</w>": 2941,
  "alab": 23900,
  "alabama</w>": 4841,
  "alain</w>": 21391,
  "alam": 17439,
  "alam</w>": 18681,
  "alan": 15691,
  "alan</w>": 3818,
  "aland</w>": 14031,
  "alarm</w>": 8016,
  "alarmed</w>": 20917,
  "alas": 23297,
  "alas</w>": 26953,
  "alaska</w>": 6948,
  "alaya</w>": 25994,
  "alb": 11299,
  "alba</w>": 21457,
  "albania</w>": 10685,
  "albanian</w>": 9931,
  "albany</w>": 10800,
  "albe": 22835,
  "albeit</w>": 12257,
  "alber": 14221,
  "albert</w>": 3873,
  "alberta</w>": 7102,
  "alberto</w>": 14444,
  "albi": 28027,
  "albion</w>": 14384,
  "albu": 25029,
  "album</w>": 228,
  "albums</w>": 2244,
  "albuquerque</w>": 23812,
  "alco": 10842,
  "alcoho": 28981,
  "alcohol</w>": 5741,
  "alcoholic</w>": 16063,
  "ald": 24593,
  "ald</w>": 11555,
  "alde": 23056,
  "alder": 16428,
  "alderman</w>": 22729,
  "aldo</w>": 13559,
  "ale": 5026,
  "ale</w>": 2366,
  "alec</w>": 9465,
  "aled</w>": 15733,
  "alej": 29297,
  "alejandro</w>": 22783,
  "alek": 18485,
  "aleksand": 17415,
  "aleppo</w>": 25914,
  "aler": 18280,
  "alert</w>": 9166,
  "alerted</w>": 24742,
  "ales</w>": 6594,
  "aless": 28326,
  "alessandro</w>": 23665,
  "alex": 10382,
  "alex</w>": 2712,
  "alexand": 15724,
  "alexander</w>": 2402,
  "alexandra</w>": 11636,
  "alexandre</w>": 22784,
  "alexandria</w>": 10666,
  "alexia</w>": 23851,
  "alexis</w>": 15461,
  "alf</w>": 23070,
  "alfon": 28973,
  "alfonso</w>": 16010,
  "alfre": 29072,
  "alfred</w>": 5919,
  "alfredo</w>": 26154,
  "alg": 27520,
  "algae</w>": 20394,
  "alge": 24458,
  "algebra": 29492,
  "algebra</w>": 11630,
  "algebraic</w>": 20402,
  "alger": 28252,
  "algeria</w>": 12491,
  "algerian</w>": 19060,
  "algiers</w>": 27269,
  "algorith": 29083,
  "algorithm</w>": 10058,
  "algorithms</w>": 15507,
  "ali": 1847,
  "ali</w>": 2268,
  "alia</w>": 6328,
  "alian</w>": 15156,
  "alias</w>": 17171,
  "alice</w>": 4756,
  "alicia</w>": 19802,
  "alid</w>": 28280,
  "alie</w>": 16286,
  "alien": 17444,
  "alien</w>": 6733,
  "aliens</w>": 12611,
  "alier</w>": 26209,
  "alig": 28063,
  "align</w>": 9516,
  "aligned</w>": 13291,
  "alignment</w>": 12285,
  "alike</w>": 11064,
  "aline</w>": 24422,
  "aling</w>": 8813,
  "alis</w>": 8120,
  "alisation</w>": 13975,
  "alise</w>": 20395,
  "alised</w>": 8482,
  "alism</w>": 4016,
  "alison</w>": 14655,
  "alist</w>": 4890,
  "alistic</w>": 10377,
  "alists</w>": 6699,
  "alities</w>": 10882,
  "ality</w>": 3701,
  "alive</w>": 2560,
  "alization</w>": 4550,
  "alize</w>": 7988,
  "alized</w>": 3438,
  "alizes</w>": 27817,
  "alizing</w>": 11898,
  "all": 2590,
  "all-": 2205,
  "all-american</w>": 11396,
  "all-around</w>": 24686,
  "all-ireland</w>": 12236,
  "all-star</w>": 8797,
  "all-time</w>": 10068,
  "all</w>": 69,
  "alla": 22974,
  "alla</w>": 12659,
  "allah</w>": 18073,
  "allan</w>": 7999,
  "alle": 9544,
  "alle</w>": 17145,
  "alled</w>": 12982,
  "alleg": 15841,
  "allegations</w>": 9564,
  "alleged</w>": 5921,
  "allegedly</w>": 8936,
  "allegh": 29292,
  "allegheny</w>": 24326,
  "allegi": 29350,
  "allegiance</w>": 15789,
  "alleging</w>": 26286,
  "allel</w>": 30035,
  "allen</w>": 4369,
  "aller": 17505,
  "aller</w>": 14796,
  "allers</w>": 25676,
  "allevi": 20185,
  "alley</w>": 8135,
  "alli": 5956,
  "alli</w>": 12572,
  "alliance</w>": 3338,
  "alliances</w>": 23464,
  "allie</w>": 18202,
  "allied</w>": 4956,
  "allies</w>": 5927,
  "alling</w>": 9611,
  "allison</w>": 11904,
  "allmusic</w>": 10330,
  "allo": 9540,
  "allo</w>": 21732,
  "allocated</w>": 11038,
  "allocation</w>": 18527,
  "allotted</w>": 27533,
  "allow": 19695,
  "allow</w>": 1739,
  "allowance</w>": 26062,
  "allowed</w>": 1203,
  "allowing</w>": 2807,
  "allows</w>": 2923,
  "alloy</w>": 20063,
  "alls</w>": 10873,
  "allu": 10131,
  "ally-": 11660,
  "ally</w>": 1611,
  "alma</w>": 12467,
  "almost</w>": 547,
  "alo": 4975,
  "alo</w>": 14549,
  "alog</w>": 24609,
  "alogue</w>": 29823,
  "alom</w>": 28484,
  "alon": 27737,
  "alone</w>": 1016,
  "along": 28641,
  "along</w>": 280,
  "alongside</w>": 2368,
  "alonso</w>": 20732,
  "aloud</w>": 12788,
  "alp": 26704,
  "alpha": 22419,
  "alpha</w>": 6696,
  "alphabe": 16842,
  "alphabet</w>": 13440,
  "alpine</w>": 9829,
  "alps</w>": 14662,
  "already</w>": 606,
  "alright</w>": 10317,
  "als</w>": 1133,
  "also</w>": 63,
  "alt": 16796,
  "alt</w>": 14958,
  "alta</w>": 19984,
  "altar</w>": 9022,
  "alter": 10728,
  "alter</w>": 12017,
  "alterations</w>": 18625,
  "altered</w>": 7937,
  "altering</w>": 21307,
  "altern": 25621,
  "alternate</w>": 7101,
  "alternately</w>": 26850,
  "alternating</w>": 16744,
  "alternative</w>": 3149,
  "alternatively</w>": 15144,
  "alternatives</w>": 18177,
  "although</w>": 383,
  "alties</w>": 15862,
  "altitude</w>": 7581,
  "altitudes</w>": 24809,
  "alto</w>": 12956,
  "altogether</w>": 10249,
  "alty</w>": 22051,
  "alu": 9315,
  "alu</w>": 27081,
  "alum": 28246,
  "alumin": 29274,
  "alumini": 29569,
  "aluminium</w>": 16861,
  "aluminum</w>": 14285,
  "alumni</w>": 9119,
  "alumnus</w>": 23015,
  "alus</w>": 24337,
  "alv": 28235,
  "alvar": 20079,
  "alvarez</w>": 21090,
  "alvin</w>": 22611,
  "always</w>": 552,
  "aly": 8302,
  "aly</w>": 11896,
  "alz": 28846,
  "alzheimer</w>": 26043,
  "am": 506,
  "am-": 11312,
  "am</w>": 379,
  "ama": 26253,
  "ama</w>": 3050,
  "amal": 22851,
  "amalgam": 28927,
  "amalgamated</w>": 19024,
  "amalgamation</w>": 24732,
  "aman": 15498,
  "aman</w>": 8961,
  "amanda</w>": 8208,
  "amar": 8701,
  "amar</w>": 20532,
  "amassed</w>": 24312,
  "amat": 19730,
  "amate": 24111,
  "amateur</w>": 4544,
  "amaz": 10097,
  "amazed</w>": 16229,
  "amazement</w>": 23878,
  "amazing</w>": 5444,
  "amazon</w>": 11083,
  "amba</w>": 21647,
  "ambass": 29190,
  "ambassador</w>": 5243,
  "ambassadors</w>": 21742,
  "amber</w>": 8563,
  "ambi": 13269,
  "ambient</w>": 19663,
  "ambigu": 25713,
  "ambiguous</w>": 20157,
  "ambition</w>": 18228,
  "ambitions</w>": 21753,
  "ambitious</w>": 12710,
  "ambro": 21028,
  "ambrose</w>": 17837,
  "ambu": 17506,
  "ambulance</w>": 11351,
  "ambush</w>": 16566,
  "ambushed</w>": 24640,
  "amc</w>": 25933,
  "ame": 8171,
  "ame</w>": 6776,
  "amed</w>": 9717,
  "amelia</w>": 12094,
  "amen": 27878,
  "amen</w>": 17482,
  "amend": 29477,
  "amended</w>": 13923,
  "amendment</w>": 6873,
  "amendments</w>": 18007,
  "amenities</w>": 22003,
  "ament</w>": 20090,
  "aments</w>": 24287,
  "amer": 7642,
  "amer</w>": 18106,
  "americ": 15835,
  "america</w>": 799,
  "american-": 23487,
  "american</w>": 189,
  "americana</w>": 22456,
  "americans</w>": 3422,
  "americas</w>": 11235,
  "ames</w>": 10803,
  "amese</w>": 22715,
  "ameter</w>": 29545,
  "amher": 29793,
  "amherst</w>": 23530,
  "ami": 3855,
  "ami</w>": 5566,
  "amia</w>": 16101,
  "amic</w>": 21065,
  "amid": 28622,
  "amid</w>": 10559,
  "amide</w>": 23014,
  "amidst</w>": 18613,
  "amie</w>": 26882,
  "amil</w>": 24901,
  "amin": 21590,
  "amin</w>": 21455,
  "amine</w>": 13760,
  "aming</w>": 8851,
  "amino</w>": 14309,
  "amir</w>": 19482,
  "amish</w>": 25593,
  "amm": 14184,
  "ammon": 18094,
  "ammunition</w>": 9044,
  "amne": 27392,
  "amnesty</w>": 18023,
  "amo": 14468,
  "amo</w>": 14354,
  "amon</w>": 18357,
  "among": 29871,
  "among</w>": 505,
  "amongst</w>": 4715,
  "amor": 14901,
  "amor</w>": 25979,
  "amos</w>": 12864,
  "amoto</w>": 21696,
  "amoun": 28038,
  "amount</w>": 2143,
  "amounted</w>": 20483,
  "amounts</w>": 7443,
  "amous</w>": 29280,
  "amp": 5439,
  "amp</w>": 7821,
  "amped</w>": 27792,
  "amphi": 11054,
  "amphibious</w>": 18090,
  "amping</w>": 21082,
  "ampl": 29242,
  "ample</w>": 21345,
  "ampli": 12853,
  "amplifier</w>": 26524,
  "amplitude</w>": 26246,
  "amps</w>": 27673,
  "ampton</w>": 22902,
  "ams</w>": 5414,
  "amshire</w>": 29865,
  "amster": 29531,
  "amsterdam</w>": 7858,
  "amtrak</w>": 22843,
  "amu": 13988,
  "amura</w>": 26183,
  "amuse": 29176,
  "amused</w>": 11457,
  "amusement</w>": 9384,
  "amusing</w>": 20971,
  "amy": 24851,
  "amy</w>": 4450,
  "an": 269,
  "an-": 2764,
  "an-american</w>": 16372,
  "an-born</w>": 16121,
  "an</w>": 43,
  "ana": 9795,
  "ana</w>": 1071,
  "anaheim</w>": 25670,
  "anal</w>": 21006,
  "analo": 16853,
  "analog</w>": 12963,
  "analogous</w>": 22364,
  "analogue</w>": 25632,
  "analy": 11131,
  "analyses</w>": 18525,
  "analysis</w>": 2693,
  "analyst</w>": 13645,
  "analysts</w>": 19595,
  "analytic</w>": 22682,
  "analytical</w>": 20397,
  "analyze</w>": 20186,
  "analyzed</w>": 17977,
  "analyzing</w>": 22899,
  "anand</w>": 22698,
  "ananda</w>": 26293,
  "anapolis</w>": 29925,
  "anarchi": 22126,
  "anarchist</w>": 21372,
  "anas</w>": 12584,
  "anasta": 28288,
  "anastasia</w>": 24687,
  "anat": 27499,
  "anate</w>": 26519,
  "anatoli": 19818,
  "anatom": 22108,
  "anatomy</w>": 14876,
  "anc": 18148,
  "anc</w>": 27452,
  "ance": 28767,
  "ance</w>": 2973,
  "ances</w>": 7492,
  "ancest": 29473,
  "ancestor</w>": 13841,
  "ancestors</w>": 10780,
  "ancestral</w>": 15971,
  "ancestry</w>": 11468,
  "anch": 13295,
  "anchor": 28834,
  "anchor</w>": 8266,
  "anchorage</w>": 24781,
  "anchored</w>": 15113,
  "anci": 13154,
  "ancient</w>": 1732,
  "ancies</w>": 21904,
  "ancy</w>": 15714,
  "and": 1936,
  "and-": 5055,
  "and-</w>": 22337,
  "and-a-": 21280,
  "and</w>": 18,
  "anda</w>": 5268,
  "andalu": 23129,
  "andan</w>": 19206,
  "ande</w>": 27444,
  "ander": 11832,
  "ander</w>": 7639,
  "anders</w>": 11216,
  "andersen</w>": 24551,
  "anderson</w>": 4485,
  "andes</w>": 15734,
  "andhra</w>": 14999,
  "andi</w>": 16004,
  "ando": 26039,
  "ando</w>": 13386,
  "andr": 22031,
  "andra</w>": 14797,
  "andre": 11112,
  "andre</w>": 7624,
  "andrea</w>": 9438,
  "andreas</w>": 15742,
  "andrei</w>": 23144,
  "andres</w>": 20254,
  "andrew</w>": 2945,
  "andrews</w>": 9517,
  "andro": 13704,
  "andro</w>": 28176,
  "android</w>": 13272,
  "ands</w>": 19960,
  "andy</w>": 4179,
  "ane": 11133,
  "ane</w>": 3996,
  "anec": 29785,
  "anecdo": 23171,
  "aned</w>": 26690,
  "anes": 19918,
  "anes</w>": 23289,
  "anese</w>": 14385,
  "aney</w>": 28413,
  "ang": 1596,
  "ang</w>": 2669,
  "anga</w>": 8918,
  "angana</w>": 25751,
  "ange</w>": 26379,
  "angel": 7807,
  "angel</w>": 3918,
  "angela</w>": 11772,
  "angeles</w>": 1763,
  "angeli": 27928,
  "angelica</w>": 23505,
  "angelo</w>": 10855,
  "angels</w>": 6729,
  "anger</w>": 2841,
  "angered</w>": 20287,
  "angie</w>": 15957,
  "angle</w>": 5360,
  "angled</w>": 13544,
  "angles</w>": 10358,
  "angli": 27900,
  "anglia</w>": 27523,
  "anglican</w>": 9254,
  "anglo-": 10173,
  "anglo-saxon</w>": 19686,
  "ango</w>": 14361,
  "angola</w>": 15177,
  "angri": 29654,
  "angrily</w>": 14431,
  "angry</w>": 3395,
  "angs</w>": 25234,
  "angu": 16295,
  "anguish</w>": 24474,
  "angular</w>": 17594,
  "angus</w>": 15573,
  "ani": 2264,
  "ani</w>": 2789,
  "ania</w>": 5385,
  "anian</w>": 10853,
  "anians</w>": 15323,
  "anic</w>": 11872,
  "anie</w>": 17989,
  "aniel</w>": 29067,
  "anim": 7613,
  "animal</w>": 2701,
  "animals</w>": 2638,
  "animated</w>": 5877,
  "animation</w>": 7219,
  "anime</w>": 8903,
  "aning</w>": 22591,
  "anism</w>": 9320,
  "anist</w>": 28270,
  "anita</w>": 13078,
  "anium</w>": 23666,
  "anized</w>": 19314,
  "anka</w>": 24191,
  "ankara</w>": 21546,
  "ankle</w>": 10961,
  "ankles</w>": 16287,
  "ann": 2359,
  "ann</w>": 4208,
  "anna</w>": 1840,
  "annab": 24122,
  "annah</w>": 28881,
  "annals</w>": 22403,
  "anne": 21890,
  "anne</w>": 2451,
  "anner</w>": 14993,
  "anners</w>": 14246,
  "annes</w>": 25241,
  "annex": 28249,
  "annex</w>": 21041,
  "annexation</w>": 20864,
  "annexed</w>": 13854,
  "anni": 15441,
  "anni</w>": 16091,
  "annie</w>": 7593,
  "annihil": 24465,
  "annis</w>": 20789,
  "anniversary</w>": 4314,
  "anno": 23418,
  "annon</w>": 18468,
  "announ": 21992,
  "announce</w>": 16462,
  "announced</w>": 705,
  "announcement</w>": 8303,
  "announcer</w>": 16981,
  "announces</w>": 21327,
  "announcing</w>": 14264,
  "annoy": 29192,
  "annoyance</w>": 18775,
  "annoyed</w>": 11479,
  "annoying</w>": 16686,
  "annu": 26054,
  "annual</w>": 1593,
  "annually</w>": 5400,
  "anny</w>": 28368,
  "ano": 5650,
  "ano</w>": 2234,
  "anom": 15405,
  "anonym": 23887,
  "anonymous</w>": 11183,
  "anoo": 24857,
  "anor</w>": 28898,
  "anos</w>": 18423,
  "another</w>": 205,
  "ans</w>": 1032,
  "answ": 28707,
  "answer</w>": 1647,
  "answered</w>": 2929,
  "answering</w>": 10521,
  "answers</w>": 6034,
  "ant": 2879,
  "ant-": 21772,
  "ant</w>": 1007,
  "anta</w>": 20905,
  "antagonist</w>": 21396,
  "antarc": 29674,
  "antarctic</w>": 11094,
  "antarctica</w>": 14678,
  "ante": 21937,
  "ante</w>": 8786,
  "anten": 16005,
  "antenna</w>": 14484,
  "anter": 28198,
  "anterior</w>": 17039,
  "anth": 9549,
  "antha</w>": 28072,
  "anthem</w>": 13187,
  "antho": 17980,
  "anthology</w>": 10988,
  "anthony</w>": 4377,
  "anthro": 24746,
  "anthropo": 18256,
  "anthropologist</w>": 25641,
  "anthropology</w>": 14512,
  "anti": 2075,
  "anti-": 1932,
  "anti-aircraft</w>": 16347,
  "anti</w>": 13961,
  "antibio": 19186,
  "antibodies</w>": 25827,
  "anticip": 18387,
  "anticipated</w>": 11093,
  "anticipation</w>": 10959,
  "antine</w>": 22382,
  "antioch</w>": 22228,
  "antiqu": 20506,
  "antique</w>": 16054,
  "antiquities</w>": 25338,
  "antiquity</w>": 18721,
  "antly</w>": 6611,
  "anto": 22045,
  "anto</w>": 21513,
  "antoine</w>": 15754,
  "anton": 15437,
  "anton</w>": 10504,
  "antoni": 25902,
  "antonio</w>": 4247,
  "antony</w>": 20214,
  "antry</w>": 28489,
  "ants</w>": 4067,
  "antwer": 29687,
  "antwerp</w>": 15883,
  "anu": 10684,
  "anu</w>": 14276,
  "anum</w>": 23756,
  "anus</w>": 9887,
  "anut</w>": 29740,
  "anxi": 28358,
  "anxiety</w>": 10106,
  "anxious</w>": 11417,
  "anxiously</w>": 25983,
  "any": 4744,
  "any</w>": 171,
  "anya</w>": 11528,
  "anybody</w>": 10280,
  "anymore</w>": 3393,
  "anyone</w>": 1276,
  "anything</w>": 577,
  "anytime</w>": 16795,
  "anyway</w>": 2696,
  "anywhere</w>": 4769,
  "anza</w>": 16218,
  "ao": 8796,
  "ao</w>": 4246,
  "ap": 927,
  "ap</w>": 5034,
  "apa</w>": 12543,
  "apache</w>": 19053,
  "apar": 27143,
  "apart": 29355,
  "apart</w>": 2627,
  "aparte</w>": 29879,
  "aparthe": 29921,
  "apartheid</w>": 20278,
  "apartment</w>": 3051,
  "apartments</w>": 10060,
  "ape</w>": 12239,
  "apeake</w>": 30081,
  "aper": 27640,
  "aper</w>": 28313,
  "aperture</w>": 22175,
  "apes</w>": 20128,
  "apest</w>": 28997,
  "apex</w>": 14345,
  "aph": 11823,
  "aph</w>": 22374,
  "api": 23613,
  "api</w>": 17437,
  "apo": 6076,
  "apo</w>": 17331,
  "apocalyp": 27649,
  "apocalypse</w>": 21249,
  "apol": 13052,
  "apolis</w>": 25540,
  "apollo</w>": 9425,
  "apolo": 19331,
  "apolog": 25177,
  "apologi": 22738,
  "apologize</w>": 11956,
  "apologized</w>": 18984,
  "apology</w>": 12641,
  "apost": 28332,
  "apostle</w>": 25284,
  "apostles</w>": 23208,
  "aposto": 29031,
  "apostolic</w>": 14391,
  "app": 3639,
  "app</w>": 10258,
  "appa</w>": 17954,
  "appal": 29356,
  "appalachi": 28759,
  "appalachian</w>": 22506,
  "appar": 15759,
  "apparatus</w>": 16690,
  "apparent</w>": 5793,
  "apparently</w>": 3031,
  "appe": 13758,
  "appeal</w>": 4437,
  "appealed</w>": 12058,
  "appealing</w>": 16423,
  "appeals</w>": 8753,
  "appear": 29288,
  "appear</w>": 1988,
  "appearance</w>": 1595,
  "appearances</w>": 2328,
  "appeared</w>": 686,
  "appearing</w>": 4730,
  "appears</w>": 1903,
  "apped</w>": 15700,
  "appell": 27832,
  "appellate</w>": 27077,
  "appendi": 23364,
  "apper</w>": 25052,
  "appetite</w>": 21435,
  "apping</w>": 20699,
  "appla": 29262,
  "applause</w>": 23357,
  "apple": 24599,
  "apple</w>": 5039,
  "apples</w>": 19619,
  "appli": 28014,
  "appliances</w>": 26583,
  "applic": 21727,
  "applicable</w>": 17446,
  "applicants</w>": 19365,
  "application</w>": 3480,
  "applications</w>": 4028,
  "applied</w>": 2694,
  "applies</w>": 12707,
  "apply</w>": 5750,
  "applying</w>": 11563,
  "appoin": 27910,
  "appoint</w>": 14406,
  "appointed</w>": 950,
  "appointing</w>": 27849,
  "appointment</w>": 4910,
  "appointments</w>": 14521,
  "appreci": 19026,
  "appreciate</w>": 8443,
  "appreciated</w>": 11996,
  "appreciation</w>": 13021,
  "apprehen": 14281,
  "appren": 29916,
  "apprentic": 20799,
  "apprentice</w>": 14369,
  "apprenticeship</w>": 22900,
  "appro": 13429,
  "approach</w>": 2334,
  "approached</w>": 3997,
  "approaches</w>": 7554,
  "approaching</w>": 7721,
  "appropri": 11998,
  "appropriate</w>": 5533,
  "appropriately</w>": 23267,
  "approval</w>": 5113,
  "approve</w>": 14305,
  "approved</w>": 3296,
  "approving</w>": 26173,
  "approxim": 27461,
  "approximate</w>": 17955,
  "approximately</w>": 1355,
  "approximation</w>": 23446,
  "apps</w>": 21651,
  "april</w>": 340,
  "apron</w>": 22912,
  "aps</w>": 10373,
  "apu": 22054,
  "apul": 25929,
  "apur</w>": 26074,
  "apuram</w>": 24405,
  "aq": 18493,
  "aq</w>": 20056,
  "aqu": 5240,
  "aquarium</w>": 20537,
  "aquatic</w>": 13741,
  "aquatics</w>": 26576,
  "aque</w>": 24152,
  "aqueduc": 23973,
  "aqui": 17850,
  "ar": 246,
  "ar-": 8527,
  "ar</w>": 733,
  "ara</w>": 2280,
  "arab": 11470,
  "arab</w>": 4543,
  "arabia</w>": 9084,
  "arabian</w>": 14869,
  "arabic</w>": 6345,
  "arabs</w>": 15574,
  "aragon</w>": 18890,
  "arak": 21505,
  "aram": 17796,
  "aram</w>": 19431,
  "aran": 26828,
  "aran</w>": 15851,
  "arat</w>": 23432,
  "arbit": 27638,
  "arbitr": 27756,
  "arbitrary</w>": 17448,
  "arbitration</w>": 20987,
  "arbor</w>": 24196,
  "arc": 9502,
  "arc</w>": 7508,
  "arca": 20209,
  "arca</w>": 27351,
  "arcade</w>": 11736,
  "arch": 6329,
  "arch</w>": 6977,
  "archae": 27582,
  "archaeological</w>": 6874,
  "archaeologist</w>": 21930,
  "archaeologists</w>": 20970,
  "archaeology</w>": 13246,
  "archaic</w>": 22012,
  "archbishop</w>": 6237,
  "archdeacon</w>": 26590,
  "archdiocese</w>": 14185,
  "arche": 15993,
  "arched</w>": 8512,
  "archeological</w>": 25880,
  "archer</w>": 11377,
  "archers</w>": 26298,
  "archery</w>": 23783,
  "arches</w>": 13992,
  "archi": 7694,
  "archibald</w>": 19403,
  "archie</w>": 15000,
  "arching</w>": 23433,
  "archipel": 29690,
  "archipelago</w>": 14810,
  "archit": 28858,
  "architec": 22550,
  "architect</w>": 3739,
  "architects</w>": 7699,
  "architectural</w>": 5576,
  "architecture</w>": 2956,
  "archive</w>": 9812,
  "archives</w>": 8081,
  "archs</w>": 28365,
  "archy</w>": 23123,
  "arctic</w>": 10274,
  "ard": 15640,
  "ard-": 26427,
  "ard</w>": 1527,
  "ardi": 18733,
  "ardi</w>": 22828,
  "ardly</w>": 26988,
  "ardo</w>": 20942,
  "ards</w>": 6612,
  "ardy</w>": 26635,
  "are": 4062,
  "are-": 28247,
  "are</w>": 49,
  "area</w>": 210,
  "areas</w>": 897,
  "ared</w>": 21191,
  "arek</w>": 24798,
  "aren": 16571,
  "aren</w>": 3490,
  "arena</w>": 4068,
  "ares</w>": 12459,
  "arest</w>": 25296,
  "aret</w>": 28605,
  "arez</w>": 17392,
  "argent": 16941,
  "argentina</w>": 4934,
  "argentine</w>": 8039,
  "argon": 25832,
  "argu": 16078,
  "arguably</w>": 16886,
  "argue</w>": 6471,
  "argued</w>": 3835,
  "argues</w>": 8663,
  "arguing</w>": 8525,
  "argument</w>": 5719,
  "arguments</w>": 9784,
  "argy": 16409,
  "ari": 1917,
  "ari</w>": 3029,
  "aria</w>": 3846,
  "arian</w>": 7236,
  "arians</w>": 11507,
  "arias</w>": 20565,
  "aric</w>": 15747,
  "arid</w>": 15308,
  "arie</w>": 16373,
  "ariel</w>": 18911,
  "aries</w>": 6379,
  "arily</w>": 13729,
  "arina</w>": 18454,
  "arine</w>": 23805,
  "aring</w>": 8154,
  "ario</w>": 9718,
  "arios</w>": 28404,
  "arious</w>": 18365,
  "aris": 19650,
  "aris</w>": 11210,
  "arise</w>": 13798,
  "arises</w>": 21284,
  "arising</w>": 19509,
  "arism</w>": 27059,
  "arist</w>": 20176,
  "aristo": 27998,
  "aristoc": 23581,
  "aristocracy</w>": 25762,
  "aristocratic</w>": 21847,
  "aristotle</w>": 20524,
  "arists</w>": 26587,
  "arith": 27659,
  "arithmetic</w>": 24435,
  "arities</w>": 16887,
  "arity</w>": 10900,
  "arium</w>": 13206,
  "arius</w>": 17395,
  "ariz": 28124,
  "arization</w>": 18528,
  "arized</w>": 21720,
  "arizona</w>": 4242,
  "ark": 15259,
  "ark</w>": 12348,
  "arkansas</w>": 5798,
  "arlington</w>": 15215,
  "arly</w>": 20440,
  "arm": 5835,
  "arm</w>": 948,
  "armag": 20958,
  "armament</w>": 13724,
  "armed</w>": 2724,
  "armen": 28649,
  "armenia</w>": 10643,
  "armenian</w>": 7621,
  "armenians</w>": 23393,
  "armies</w>": 8226,
  "arming</w>": 20815,
  "armis": 29819,
  "armistice</w>": 21374,
  "armor": 28243,
  "armor</w>": 7806,
  "armored</w>": 11233,
  "armory</w>": 27511,
  "armour</w>": 13443,
  "armoured</w>": 11081,
  "arms</w>": 676,
  "armstrong</w>": 9808,
  "army</w>": 489,
  "arn": 10149,
  "arnold</w>": 8207,
  "aro": 12122,
  "aro</w>": 9445,
  "arom": 18671,
  "aroo</w>": 29139,
  "arose</w>": 9916,
  "around</w>": 126,
  "arousal</w>": 20658,
  "aroused</w>": 19901,
  "arran": 26192,
  "arrang": 29962,
  "arrange</w>": 13167,
  "arranged</w>": 4063,
  "arrangement</w>": 5995,
  "arrangements</w>": 7762,
  "arranger</w>": 26521,
  "arranging</w>": 19007,
  "array</w>": 8243,
  "arrest</w>": 5487,
  "arrested</w>": 3208,
  "arrests</w>": 19094,
  "arri": 11390,
  "arrival</w>": 4272,
  "arrive</w>": 6186,
  "arrived</w>": 1568,
  "arrives</w>": 7644,
  "arriving</w>": 6172,
  "arro": 25086,
  "arrog": 25178,
  "arrogant</w>": 17052,
  "arron": 29990,
  "arrondis": 29456,
  "arrondissement</w>": 24049,
  "arrow</w>": 8633,
  "arrows</w>": 13333,
  "ars</w>": 3125,
  "arse</w>": 28383,
  "arsen": 17939,
  "arsenal</w>": 9208,
  "art": 7300,
  "art</w>": 525,
  "arta</w>": 27281,
  "arte": 19119,
  "arte</w>": 16604,
  "artem": 27997,
  "artemis</w>": 21301,
  "arter": 23263,
  "artery</w>": 19298,
  "arth": 17711,
  "arthro": 26996,
  "arthur</w>": 3325,
  "arti": 5582,
  "artic": 14131,
  "article</w>": 2080,
  "articles</w>": 3264,
  "articulated</w>": 23711,
  "artifact</w>": 23689,
  "artifacts</w>": 10426,
  "artificial</w>": 7499,
  "artillery</w>": 4025,
  "artist</w>": 1436,
  "artistic</w>": 4952,
  "artists</w>": 1620,
  "arts</w>": 1107,
  "artwork</w>": 8708,
  "artworks</w>": 26031,
  "aru": 20648,
  "aru</w>": 21878,
  "arun": 18971,
  "ary-": 20836,
  "ary</w>": 2406,
  "arya</w>": 26904,
  "as": 511,
  "as-": 13330,
  "as</w>": 28,
  "asa</w>": 7598,
  "asaki</w>": 24380,
  "asan</w>": 20733,
  "asar": 23351,
  "asc": 14593,
  "ascen": 28154,
  "ascended</w>": 21633,
  "ascending</w>": 26393,
  "ascension</w>": 21666,
  "ascent</w>": 19876,
  "asco</w>": 17233,
  "ascri": 18645,
  "ase": 25978,
  "ase-": 22138,
  "ase</w>": 3499,
  "ased</w>": 16722,
  "aser</w>": 15965,
  "ases</w>": 6477,
  "ash": 2072,
  "ash</w>": 2500,
  "asha</w>": 9988,
  "ashamed</w>": 15427,
  "ashe</w>": 12836,
  "ashed</w>": 8911,
  "asher</w>": 14381,
  "ashes</w>": 6885,
  "ashi": 17354,
  "ashi</w>": 7117,
  "ashing</w>": 8597,
  "ashley</w>": 9510,
  "asho": 21779,
  "ashore</w>": 15369,
  "ashton</w>": 16676,
  "ashtra</w>": 29051,
  "asi": 5432,
  "asi</w>": 8754,
  "asia</w>": 2380,
  "asian</w>": 2257,
  "aside</w>": 3529,
  "asing</w>": 10197,
  "asingly</w>": 29097,
  "asis</w>": 27144,
  "ask</w>": 1283,
  "aska</w>": 28398,
  "asked</w>": 285,
  "asking</w>": 3311,
  "asks</w>": 3227,
  "asleep</w>": 5515,
  "asm</w>": 20326,
  "ason</w>": 14199,
  "asons</w>": 22556,
  "asp": 9383,
  "aspect</w>": 7488,
  "aspects</w>": 4908,
  "aspen</w>": 21683,
  "asper": 27736,
  "asph": 27074,
  "asphalt</w>": 18530,
  "aspir": 18052,
  "aspirations</w>": 26436,
  "aspiring</w>": 25787,
  "ass": 4328,
  "ass**": 29164,
  "ass**le</w>": 21272,
  "ass</w>": 2040,
  "assa</w>": 21566,
  "assail": 26994,
  "assam</w>": 16466,
  "assassin": 19767,
  "assassin</w>": 13022,
  "assassinated</w>": 18253,
  "assassination</w>": 10057,
  "assassins</w>": 20682,
  "assaul": 28069,
  "assault</w>": 5000,
  "assaulted</w>": 18949,
  "assaults</w>": 25671,
  "asse": 9365,
  "assed</w>": 25292,
  "assem": 28480,
  "assemb": 28889,
  "assembl": 23995,
  "assemble</w>": 22437,
  "assembled</w>": 7899,
  "assemblies</w>": 20140,
  "assembly</w>": 1582,
  "assen</w>": 26450,
  "asser": 11784,
  "asser</w>": 17657,
  "assert</w>": 23925,
  "asserted</w>": 14111,
  "asserts</w>": 21853,
  "asses</w>": 16501,
  "assess": 28574,
  "assess</w>": 15206,
  "assessed</w>": 13930,
  "assessing</w>": 23018,
  "assessm": 30079,
  "assessment</w>": 7237,
  "assessments</w>": 23647,
  "asset</w>": 12254,
  "assets</w>": 6246,
  "assh": 28875,
  "asshole</w>": 24211,
  "assi": 5880,
  "assi</w>": 25610,
  "assic</w>": 27933,
  "assie</w>": 26921,
  "assign": 29781,
  "assigned</w>": 2531,
  "assignment</w>": 8355,
  "assignments</w>": 15820,
  "assigns</w>": 27189,
  "assimil": 16051,
  "assin": 28444,
  "assin</w>": 29009,
  "assing</w>": 21509,
  "assis</w>": 28851,
  "assist</w>": 5594,
  "assistance</w>": 4359,
  "assistant</w>": 1944,
  "assistants</w>": 18878,
  "assisted</w>": 6325,
  "assisting</w>": 15153,
  "assists</w>": 7940,
  "assment</w>": 30071,
  "asso</w>": 20377,
  "associ": 19727,
  "associate</w>": 4567,
  "associated</w>": 1638,
  "associates</w>": 8998,
  "association</w>": 711,
  "associations</w>": 8579,
  "assor": 19077,
  "assu": 19233,
  "assum": 29920,
  "assume</w>": 7041,
  "assumed</w>": 3624,
  "assumes</w>": 17619,
  "assuming</w>": 9478,
  "assumption</w>": 11604,
  "assumptions</w>": 19747,
  "assurance</w>": 18958,
  "assure</w>": 15017,
  "assured</w>": 8251,
  "assyrian</w>": 22519,
  "ast": 4783,
  "ast</w>": 5250,
  "asted</w>": 21382,
  "aster": 13388,
  "aster</w>": 13732,
  "asteroid</w>": 12771,
  "asters</w>": 17718,
  "asth": 24168,
  "asti": 25045,
  "astic</w>": 11934,
  "astical</w>": 29041,
  "astically</w>": 29338,
  "asting</w>": 17004,
  "aston": 24375,
  "aston</w>": 15187,
  "astonished</w>": 25530,
  "astonishment</w>": 26733,
  "astr": 11340,
  "astri": 14142,
  "astro": 10047,
  "astronau": 25326,
  "astronaut</w>": 25629,
  "astronom": 25465,
  "astronomer</w>": 17522,
  "astronomical</w>": 14944,
  "astronomy</w>": 13938,
  "astros</w>": 26591,
  "asts</w>": 14843,
  "astu": 18293,
  "asu</w>": 22444,
  "asy": 15856,
  "asy</w>": 13579,
  "asylum</w>": 12040,
  "asym": 19879,
  "at": 472,
  "at-": 6146,
  "at-large</w>": 25191,
  "at</w>": 37,
  "ata</w>": 2013,
  "atar</w>": 28090,
  "atari</w>": 17659,
  "ate": 8669,
  "ate-": 13759,
  "ate</w>": 504,
  "ated</w>": 640,
  "atedly</w>": 27754,
  "ateful</w>": 27671,
  "ately</w>": 7247,
  "atem": 29550,
  "ater": 14202,
  "ater</w>": 6770,
  "ateral</w>": 17189,
  "aters</w>": 11049,
  "ates</w>": 1116,
  "ath": 4254,
  "ath</w>": 3294,
  "atha</w>": 18441,
  "atham</w>": 28899,
  "athan</w>": 25962,
  "athe": 18409,
  "athed</w>": 27109,
  "atheist</w>": 27293,
  "athen": 15800,
  "athena</w>": 26144,
  "athens</w>": 7203,
  "ather": 26156,
  "athi</w>": 21244,
  "athic</w>": 17447,
  "athing</w>": 25803,
  "athle": 24274,
  "athlete</w>": 7155,
  "athletes</w>": 6159,
  "athletic</w>": 3816,
  "athletics</w>": 4893,
  "athlon</w>": 16397,
  "aths</w>": 25567,
  "athy</w>": 11408,
  "ati": 2111,
  "ati</w>": 4989,
  "atic</w>": 3983,
  "atical</w>": 28781,
  "atically</w>": 18047,
  "atics</w>": 12571,
  "atile</w>": 29947,
  "atin</w>": 17864,
  "ating</w>": 925,
  "atio</w>": 22133,
  "ation": 10014,
  "ation-": 12316,
  "ation</w>": 612,
  "ational</w>": 4887,
  "ationally</w>": 25379,
  "ationist</w>": 22184,
  "ations</w>": 1388,
  "atis</w>": 24693,
  "ative</w>": 2474,
  "atively</w>": 12721,
  "atives</w>": 11711,
  "ativity</w>": 28535,
  "atkinson</w>": 22934,
  "atlan": 17662,
  "atlanta</w>": 5102,
  "atlantic</w>": 2947,
  "atlantis</w>": 20670,
  "atlas</w>": 13166,
  "atle": 29439,
  "atletico</w>": 18178,
  "atly</w>": 29536,
  "atmo": 28614,
  "atmosphere</w>": 6445,
  "atmospheric</w>": 13396,
  "ato": 6177,
  "ato</w>": 7417,
  "atoes</w>": 30102,
  "atoll</w>": 25747,
  "atom": 21486,
  "atom</w>": 15220,
  "atomic</w>": 9307,
  "atoms</w>": 13647,
  "aton</w>": 11025,
  "atop</w>": 9666,
  "ator</w>": 1904,
  "atore</w>": 28934,
  "atorial</w>": 20671,
  "atories</w>": 28440,
  "atorium</w>": 22748,
  "ators</w>": 3408,
  "atory</w>": 6680,
  "atown</w>": 29523,
  "atp</w>": 13472,
  "atra</w>": 17878,
  "atri": 10915,
  "atric</w>": 20259,
  "atro": 12240,
  "atrocities</w>": 26971,
  "atry</w>": 29026,
  "ats</w>": 3205,
  "att": 4476,
  "att</w>": 10751,
  "atta</w>": 11106,
  "attac": 27904,
  "attach</w>": 25182,
  "attached</w>": 3713,
  "attachment</w>": 15981,
  "attack</w>": 1041,
  "attacked</w>": 2854,
  "attacker</w>": 19676,
  "attackers</w>": 19292,
  "attacking</w>": 6987,
  "attacks</w>": 2938,
  "attain</w>": 20900,
  "attained</w>": 13080,
  "atted</w>": 18686,
  "attemp": 29939,
  "attempt</w>": 1793,
  "attempted</w>": 3143,
  "attempting</w>": 6173,
  "attempts</w>": 3229,
  "atten": 7330,
  "attend</w>": 4141,
  "attendance</w>": 7308,
  "attendant</w>": 19798,
  "attended</w>": 1391,
  "attendees</w>": 22202,
  "attending</w>": 5999,
  "attention</w>": 1273,
  "atter</w>": 13727,
  "attered</w>": 21629,
  "attering</w>": 28166,
  "atters</w>": 22283,
  "attested</w>": 19947,
  "atti</w>": 17892,
  "attic</w>": 16670,
  "attire</w>": 22745,
  "attitude</w>": 7034,
  "attitudes</w>": 15069,
  "attle</w>": 28397,
  "atton</w>": 24178,
  "attor": 27727,
  "attorney</w>": 3885,
  "attorneys</w>": 17787,
  "attrac": 28058,
  "attract</w>": 9578,
  "attracted</w>": 5057,
  "attracting</w>": 16388,
  "attraction</w>": 7868,
  "attractions</w>": 13504,
  "attractive</w>": 7592,
  "attracts</w>": 19617,
  "attribu": 17341,
  "attribute</w>": 21217,
  "attributed</w>": 6117,
  "attributes</w>": 13126,
  "atu": 16293,
  "atu</w>": 21353,
  "atum</w>": 23103,
  "ature</w>": 11498,
  "atures</w>": 21298,
  "atus</w>": 9448,
  "aty": 25534,
  "aty</w>": 23407,
  "au": 1078,
  "au-": 23708,
  "au</w>": 3133,
  "aubrey</w>": 24649,
  "auburn</w>": 12898,
  "auc": 17358,
  "auck": 29804,
  "auckland</w>": 8846,
  "auction</w>": 10542,
  "aud": 16857,
  "aud</w>": 15519,
  "audi": 9815,
  "audi</w>": 23118,
  "audible</w>": 19793,
  "audience</w>": 2930,
  "audiences</w>": 8981,
  "audio</w>": 5356,
  "audit": 25062,
  "audit</w>": 18706,
  "audition</w>": 15603,
  "auditioned</w>": 25532,
  "auditions</w>": 24707,
  "auditor</w>": 26471,
  "auditorium</w>": 11969,
  "audrey</w>": 15768,
  "auer</w>": 26231,
  "aug": 14097,
  "augmented</w>": 21877,
  "augu": 10788,
  "august": 25723,
  "august</w>": 329,
  "augusta</w>": 15218,
  "augustine</w>": 16199,
  "augustus</w>": 12783,
  "aul": 12430,
  "ault</w>": 11919,
  "aun": 16259,
  "aunt</w>": 4927,
  "aur": 13176,
  "aur</w>": 21236,
  "aura</w>": 16035,
  "aureli": 22062,
  "aurora</w>": 15148,
  "aus</w>": 12007,
  "ausch": 27531,
  "ause</w>": 28642,
  "auspices</w>": 22525,
  "aust</w>": 29796,
  "austin</w>": 5219,
  "austr": 23111,
  "austral": 21026,
  "australi": 27898,
  "australia</w>": 815,
  "australian</w>": 1033,
  "australians</w>": 16802,
  "austri": 24290,
  "austria-": 26317,
  "austria</w>": 4553,
  "austrian</w>": 5374,
  "austro": 28908,
  "austro-": 28723,
  "austro-hungarian</w>": 22914,
  "aut": 28367,
  "aut</w>": 24101,
  "auth": 24147,
  "authentic": 24976,
  "authentic</w>": 15508,
  "authenticity</w>": 24414,
  "author": 10554,
  "author</w>": 1684,
  "authored</w>": 11042,
  "authori": 23003,
  "authorised</w>": 19133,
  "authorities</w>": 3113,
  "authority</w>": 2076,
  "authorization</w>": 22179,
  "authorized</w>": 7825,
  "authors</w>": 4862,
  "autism</w>": 23339,
  "auto": 5614,
  "auto-": 27331,
  "auto</w>": 9677,
  "autobiographical</w>": 20996,
  "autobiography</w>": 11571,
  "autom": 14338,
  "automated</w>": 14045,
  "automatic</w>": 6119,
  "automatically</w>": 7540,
  "automation</w>": 24017,
  "automo": 29468,
  "automob": 29727,
  "automobile</w>": 9804,
  "automobiles</w>": 21416,
  "automotive</w>": 14278,
  "autonom": 27562,
  "autonomous</w>": 7817,
  "autonomy</w>": 13306,
  "autop": 17587,
  "autum": 29147,
  "autumn</w>": 6584,
  "aux": 28260,
  "aux</w>": 11175,
  "auxili": 28579,
  "auxiliary</w>": 10860,
  "av": 1204,
  "av</w>": 10773,
  "ava</w>": 6031,
  "avail": 29411,
  "availability</w>": 11084,
  "available</w>": 970,
  "aval": 28265,
  "avalan": 29309,
  "avalanche</w>": 22027,
  "avalon</w>": 22425,
  "avant-": 29472,
  "avant-garde</w>": 21866,
  "avatar</w>": 27124,
  "ave</w>": 11494,
  "aven": 20719,
  "aveng": 25551,
  "avenge</w>": 25597,
  "avengers</w>": 17003,
  "avenue</w>": 2398,
  "avenues</w>": 23657,
  "aver": 8591,
  "aver</w>": 23527,
  "average</w>": 903,
  "averaged</w>": 11185,
  "averages</w>": 22322,
  "averaging</w>": 15750,
  "avery</w>": 12799,
  "aves</w>": 27751,
  "avi": 5962,
  "avi</w>": 14977,
  "avia</w>": 16541,
  "avian</w>": 20851,
  "aviation</w>": 5053,
  "avid</w>": 16574,
  "aviv</w>": 15090,
  "avo": 10466,
  "avoi": 30006,
  "avoid</w>": 2974,
  "avoided</w>": 8970,
  "avoiding</w>": 9678,
  "avon</w>": 15810,
  "aw": 3423,
  "aw</w>": 8108,
  "awa": 20615,
  "awa</w>": 7850,
  "awaited</w>": 21322,
  "awaiting</w>": 16969,
  "awak": 18107,
  "awak</w>": 25151,
  "awake</w>": 7449,
  "awakened</w>": 21493,
  "awakening</w>": 19801,
  "awan</w>": 24476,
  "awar": 19929,
  "award-": 28986,
  "award-winning</w>": 11728,
  "award</w>": 652,
  "awarded</w>": 1266,
  "awarding</w>": 23929,
  "awards</w>": 1219,
  "aware</w>": 3764,
  "awareness</w>": 6333,
  "away</w>": 201,
  "awe</w>": 15932,
  "awesome</w>": 12512,
  "awful</w>": 9075,
  "awhile</w>": 21518,
  "awi</w>": 24450,
  "awk": 28377,
  "awkward</w>": 9034,
  "awkwardly</w>": 20342,
  "awned</w>": 27449,
  "awning</w>": 18763,
  "awoke</w>": 20779,
  "ax": 5958,
  "ax</w>": 7674,
  "axe</w>": 13974,
  "axel</w>": 23134,
  "axes</w>": 18995,
  "axi": 17764,
  "axial</w>": 23658,
  "axis</w>": 7597,
  "axle</w>": 19816,
  "ay": 1345,
  "ay-": 25404,
  "ay</w>": 2021,
  "aya</w>": 4541,
  "ayan</w>": 9537,
  "ayana</w>": 20330,
  "ayas</w>": 21899,
  "aye</w>": 9497,
  "ayed</w>": 22920,
  "ayer</w>": 17758,
  "aying</w>": 16889,
  "ayo</w>": 23188,
  "ays</w>": 9995,
  "az": 1576,
  "az</w>": 8393,
  "azar</w>": 15497,
  "azer": 28658,
  "azerbai": 29289,
  "azerbaijan</w>": 8180,
  "azerbaijani</w>": 24275,
  "azi": 24810,
  "azi</w>": 18857,
  "aziz</w>": 25570,
  "azzo</w>": 28693,
  "b": 288,
  "b-": 3609,
  "b-side</w>": 16379,
  "b.": 6975,
  "b.</w>": 2801,
  "b.a.</w>": 12917,
  "b.c.</w>": 24467,
  "b</w>": 407,
  "ba": 1121,
  "ba</w>": 1477,
  "bab": 5165,
  "bab</w>": 24808,
  "baba</w>": 15577,
  "babe</w>": 11818,
  "babies</w>": 10904,
  "baby": 17442,
  "baby</w>": 1687,
  "babyl": 27389,
  "babylon</w>": 21644,
  "bac": 4902,
  "bach": 13913,
  "bach</w>": 4319,
  "bachel": 27050,
  "bachelor</w>": 3952,
  "back": 3135,
  "back-": 19708,
  "back-to-": 29549,
  "back-to-back</w>": 22836,
  "back</w>": 95,
  "backbone</w>": 24802,
  "backdrop</w>": 20830,
  "backed</w>": 4931,
  "backer</w>": 28507,
  "background</w>": 3259,
  "backgrounds</w>": 16783,
  "backing</w>": 7160,
  "backpack</w>": 13708,
  "backs</w>": 5384,
  "backseat</w>": 21914,
  "backstage</w>": 23281,
  "backup</w>": 10289,
  "backward</w>": 8354,
  "backwards</w>": 11257,
  "backyard</w>": 17597,
  "bacon</w>": 12364,
  "bacter": 27745,
  "bacteria</w>": 10033,
  "bacterial</w>": 17769,
  "bacterium</w>": 20919,
  "bad": 4144,
  "bad</w>": 1028,
  "bade</w>": 24259,
  "baden-": 22492,
  "baden</w>": 18211,
  "badge</w>": 11693,
  "badges</w>": 27125,
  "badly</w>": 5524,
  "badminton</w>": 15831,
  "baf": 20802,
  "bag": 4655,
  "bag</w>": 2697,
  "bage</w>": 25989,
  "baggage</w>": 23528,
  "bagh": 28485,
  "baghdad</w>": 15867,
  "bago</w>": 28621,
  "bags</w>": 7095,
  "bah": 9655,
  "bah</w>": 18626,
  "baha": 21692,
  "baha</w>": 14247,
  "bahamas</w>": 20638,
  "bahn</w>": 10511,
  "bahrain</w>": 18261,
  "bai": 8340,
  "bai</w>": 18421,
  "bail": 23846,
  "bail</w>": 16364,
  "bailey</w>": 9415,
  "bain</w>": 22284,
  "bair": 27809,
  "baird</w>": 26216,
  "bait</w>": 18331,
  "baj": 21083,
  "baja</w>": 23278,
  "bak": 5209,
  "baked</w>": 19620,
  "baker</w>": 5912,
  "bakery</w>": 20525,
  "baking</w>": 24846,
  "baku</w>": 20294,
  "bal": 1431,
  "bal</w>": 7305,
  "bala</w>": 15606,
  "balan": 28744,
  "balance</w>": 4351,
  "balanced</w>": 10838,
  "balancing</w>": 22141,
  "balcon": 28119,
  "balcony</w>": 11639,
  "bald": 28170,
  "bald</w>": 12821,
  "baldwin</w>": 11938,
  "bali": 25930,
  "bali</w>": 19799,
  "balkan</w>": 20425,
  "balkans</w>": 22861,
  "ball": 5436,
  "ball</w>": 1507,
  "ballad</w>": 13104,
  "ballads</w>": 21860,
  "ballet</w>": 6990,
  "balli": 27622,
  "ballistic</w>": 22671,
  "ballo": 27853,
  "balloon</w>": 15096,
  "balloons</w>": 25811,
  "ballot</w>": 10537,
  "ballots</w>": 17549,
  "ballroom</w>": 15666,
  "balls</w>": 5514,
  "bally": 19627,
  "bally</w>": 26870,
  "balth": 22666,
  "balti": 28650,
  "baltic</w>": 11681,
  "baltimore</w>": 5495,
  "balu": 19042,
  "bam": 10089,
  "bam</w>": 26919,
  "bamboo</w>": 17841,
  "ban": 1498,
  "ban</w>": 3481,
  "bana</w>": 23190,
  "banana</w>": 17858,
  "band": 4110,
  "band</w>": 345,
  "banded</w>": 27707,
  "bandits</w>": 22120,
  "bands</w>": 3462,
  "bandwidth</w>": 24329,
  "bane</w>": 18145,
  "bang": 9420,
  "bang</w>": 8735,
  "bangal": 29934,
  "bangalore</w>": 16052,
  "banged</w>": 25511,
  "banging</w>": 24284,
  "bangkok</w>": 16001,
  "bangla": 24547,
  "bangladesh</w>": 6643,
  "bangor</w>": 26355,
  "bani": 26768,
  "bani</w>": 23220,
  "banished</w>": 23971,
  "bank": 15149,
  "bank</w>": 1021,
  "banker</w>": 15063,
  "banking</w>": 7799,
  "bankrup": 29329,
  "bankrupt": 29736,
  "bankrupt</w>": 19249,
  "bankruptcy</w>": 10444,
  "banks</w>": 3514,
  "banned</w>": 7107,
  "banner</w>": 9616,
  "banning</w>": 24132,
  "banquet</w>": 22090,
  "bans</w>": 22842,
  "bao</w>": 16272,
  "bap": 27765,
  "bapti": 13273,
  "baptism</w>": 21389,
  "baptist</w>": 7119,
  "baptiste</w>": 21824,
  "baptized</w>": 22079,
  "bar": 638,
  "bar</w>": 1335,
  "bara</w>": 18011,
  "barack</w>": 14828,
  "barak</w>": 21164,
  "barang": 19660,
  "barb": 12027,
  "barbad": 29814,
  "barbados</w>": 20210,
  "barbara</w>": 6486,
  "barbec": 26428,
  "barber": 21921,
  "barber</w>": 16179,
  "barbie</w>": 27341,
  "barcel": 29079,
  "barcelona</w>": 7531,
  "bard</w>": 11199,
  "bare": 18431,
  "bare</w>": 5322,
  "bared</w>": 26000,
  "barely</w>": 2926,
  "bargain</w>": 18975,
  "bargaining</w>": 25543,
  "barge</w>": 21096,
  "bari</w>": 17449,
  "baritone</w>": 23901,
  "bark</w>": 9929,
  "barked</w>": 14649,
  "barker</w>": 15239,
  "barking</w>": 19890,
  "barley</w>": 25817,
  "barlow</w>": 23460,
  "barn": 11589,
  "barn</w>": 7845,
  "barnes</w>": 11389,
  "barnett</w>": 25339,
  "barney</w>": 18568,
  "baro": 21343,
  "baron": 27804,
  "baron</w>": 5316,
  "baroness</w>": 27302,
  "baronet": 19337,
  "baronet</w>": 11015,
  "barons</w>": 24822,
  "barony</w>": 21634,
  "baroque</w>": 11339,
  "barr</w>": 23135,
  "barracks</w>": 10533,
  "barrage</w>": 21558,
  "barre": 21077,
  "barred</w>": 16114,
  "barrel</w>": 8370,
  "barrels</w>": 17125,
  "barren</w>": 22540,
  "barrett</w>": 14739,
  "barri": 23447,
  "barric": 24197,
  "barrier</w>": 8424,
  "barriers</w>": 14467,
  "barrister</w>": 23437,
  "barrow</w>": 17658,
  "barry</w>": 6165,
  "bars</w>": 5597,
  "bart": 27819,
  "bart</w>": 11619,
  "bartender</w>": 18303,
  "barthol": 29374,
  "bartholome": 29766,
  "bartholomew</w>": 24119,
  "bartlett</w>": 25815,
  "bartol": 24182,
  "barton</w>": 12255,
  "bas": 2100,
  "bas</w>": 16650,
  "basal</w>": 16222,
  "base": 28130,
  "base</w>": 1085,
  "baseball</w>": 2001,
  "based</w>": 348,
  "basel</w>": 16664,
  "baseman</w>": 20804,
  "basement</w>": 7310,
  "bases</w>": 6956,
  "bash": 23488,
  "bash</w>": 24858,
  "basi": 9683,
  "basic</w>": 2811,
  "basically</w>": 10327,
  "basil</w>": 18004,
  "basilica</w>": 14712,
  "basin</w>": 5289,
  "basins</w>": 25374,
  "basis</w>": 2375,
  "basket": 29015,
  "basket</w>": 9393,
  "basketball</w>": 1747,
  "basque</w>": 15480,
  "bass": 19605,
  "bass</w>": 3485,
  "bassist</w>": 9508,
  "bassy</w>": 30049,
  "bastar": 29171,
  "bastard</w>": 7509,
  "bastards</w>": 22975,
  "bat": 2720,
  "bat</w>": 5923,
  "batch</w>": 14765,
  "bates</w>": 12201,
  "bath": 13884,
  "bath</w>": 6264,
  "bathed</w>": 27208,
  "bathing</w>": 18338,
  "bathro": 25153,
  "bathroom</w>": 4426,
  "baths</w>": 21708,
  "bathurst</w>": 25818,
  "bati": 14786,
  "batman</w>": 10718,
  "baton</w>": 17012,
  "bats</w>": 10696,
  "batsman</w>": 14259,
  "batt": 10740,
  "battali": 29704,
  "battalion</w>": 3354,
  "battalions</w>": 10433,
  "batted</w>": 11288,
  "batter</w>": 27474,
  "battered</w>": 18992,
  "batteries</w>": 10536,
  "battery</w>": 5552,
  "batting</w>": 8336,
  "battle": 14863,
  "battle</w>": 780,
  "battled</w>": 19478,
  "battlefield</w>": 12042,
  "battles</w>": 6625,
  "battleship</w>": 19688,
  "battleships</w>": 24764,
  "battling</w>": 19372,
  "bau": 6033,
  "bauer</w>": 17918,
  "baum</w>": 14210,
  "bav": 26778,
  "bavaria</w>": 12384,
  "bavarian</w>": 17235,
  "baxter</w>": 17675,
  "bay": 3872,
  "bay</w>": 1214,
  "bayern</w>": 24054,
  "baylor</w>": 26794,
  "bays</w>": 14442,
  "baza": 24386,
  "bb": 4335,
  "bb</w>": 9893,
  "bbc</w>": 2592,
  "bbed</w>": 7842,
  "bbing</w>": 10205,
  "bbins</w>": 28474,
  "bble</w>": 9449,
  "bbled</w>": 13424,
  "bbles</w>": 21248,
  "bbling</w>": 15604,
  "bbs</w>": 19412,
  "bby</w>": 11442,
  "bc</w>": 2598,
  "bce</w>": 10907,
  "be": 477,
  "be-": 17451,
  "be</w>": 47,
  "beach": 23331,
  "beach</w>": 1886,
  "beaches</w>": 12414,
  "beacon</w>": 16106,
  "beads</w>": 19158,
  "beak</w>": 23398,
  "beam</w>": 6341,
  "beamed</w>": 23080,
  "beams</w>": 13130,
  "bean</w>": 12795,
  "beans</w>": 13041,
  "bear": 9401,
  "bear</w>": 3157,
  "bearable</w>": 23769,
  "beard</w>": 9175,
  "bearer</w>": 19084,
  "bearing</w>": 6547,
  "bearings</w>": 25169,
  "bears</w>": 5211,
  "beast</w>": 6135,
  "beasts</w>": 16147,
  "beat": 8902,
  "beat</w>": 2012,
  "beaten</w>": 6925,
  "beating</w>": 4745,
  "beatles</w>": 12276,
  "beatrice</w>": 17705,
  "beats</w>": 9220,
  "beau": 6453,
  "beau</w>": 14746,
  "beaumont</w>": 20147,
  "beauti": 28491,
  "beautiful</w>": 1656,
  "beautifully</w>": 19814,
  "beauty</w>": 3898,
  "beaver": 24303,
  "beaver</w>": 14865,
  "bec": 6318,
  "bec</w>": 22193,
  "became</w>": 169,
  "because</w>": 165,
  "becca</w>": 25334,
  "beck": 13648,
  "beck</w>": 6560,
  "becker</w>": 19437,
  "beckett</w>": 25622,
  "becky</w>": 15866,
  "becom": 29725,
  "become</w>": 549,
  "becomes</w>": 2760,
  "becoming</w>": 1558,
  "bed": 7197,
  "bed</w>": 741,
  "bedford</w>": 13411,
  "bedro": 26446,
  "bedroom</w>": 3550,
  "bedrooms</w>": 20364,
  "beds</w>": 8811,
  "bedside</w>": 21412,
  "bee": 15121,
  "bee</w>": 6628,
  "beech</w>": 26037,
  "beef</w>": 13536,
  "been</w>": 72,
  "beer</w>": 4150,
  "beers</w>": 19735,
  "bees</w>": 12471,
  "beet": 29248,
  "beethoven</w>": 19505,
  "beetle</w>": 6966,
  "beetles</w>": 15391,
  "before": 19523,
  "before</w>": 105,
  "befri": 29375,
  "befriended</w>": 26075,
  "beg": 7993,
  "beg</w>": 10332,
  "began</w>": 234,
  "begged</w>": 12867,
  "begging</w>": 13006,
  "begin</w>": 2388,
  "beginning</w>": 1086,
  "beginnings</w>": 18585,
  "begins</w>": 2751,
  "begun</w>": 4353,
  "beh": 9599,
  "beha": 18784,
  "behalf</w>": 5964,
  "behave</w>": 17721,
  "behavi": 23652,
  "behavior</w>": 4044,
  "behavioral</w>": 16283,
  "behaviors</w>": 17304,
  "behaviour</w>": 8884,
  "behind</w>": 417,
  "bei": 14233,
  "bei</w>": 13255,
  "beijing</w>": 6719,
  "bein</w>": 26762,
  "being</w>": 133,
  "beings</w>": 9397,
  "beir": 29134,
  "beirut</w>": 18298,
  "bek</w>": 22174,
  "bel": 1213,
  "bel</w>": 5653,
  "bela</w>": 21373,
  "belar": 29744,
  "belaru": 29475,
  "belarus</w>": 14659,
  "belarusian</w>": 20895,
  "belfast</w>": 11160,
  "belgarath</w>": 21973,
  "belgian</w>": 6307,
  "belgium</w>": 5085,
  "belgrade</w>": 11009,
  "beli": 12966,
  "belie": 30011,
  "belief</w>": 5899,
  "beliefs</w>": 8672,
  "believ": 27846,
  "believe</w>": 1064,
  "believed</w>": 1586,
  "believers</w>": 22257,
  "believes</w>": 6236,
  "believing</w>": 7751,
  "belize</w>": 22384,
  "bell": 10774,
  "bell</w>": 2796,
  "bella</w>": 10721,
  "belle": 20178,
  "belle</w>": 9669,
  "belli": 21119,
  "bello</w>": 27136,
  "bells</w>": 10100,
  "belly</w>": 6509,
  "belmont</w>": 20353,
  "belo": 28359,
  "belong": 29826,
  "belong</w>": 6227,
  "belonged</w>": 5040,
  "belonging</w>": 6690,
  "belongings</w>": 22013,
  "belongs</w>": 6636,
  "beloved</w>": 11901,
  "below</w>": 1128,
  "bels</w>": 27277,
  "belt</w>": 4019,
  "belts</w>": 18519,
  "ben": 1530,
  "ben</w>": 2092,
  "bench": 23719,
  "bench</w>": 5591,
  "benches</w>": 21029,
  "bend</w>": 8173,
  "bending</w>": 14784,
  "bends</w>": 25853,
  "bene": 10737,
  "beneath</w>": 2585,
  "benedic": 29002,
  "benedict</w>": 13325,
  "benedictine</w>": 24506,
  "benef": 24533,
  "benefici": 24815,
  "beneficial</w>": 16578,
  "benefit</w>": 4749,
  "benefited</w>": 21655,
  "benefits</w>": 5865,
  "beng": 12396,
  "bengal</w>": 7834,
  "bengali</w>": 13926,
  "benin</w>": 26179,
  "benjam": 29508,
  "benjamin</w>": 6085,
  "bennett</w>": 8348,
  "benny</w>": 14040,
  "beno": 26386,
  "bens</w>": 22930,
  "benson</w>": 13677,
  "bent": 21613,
  "bent</w>": 4812,
  "bentley</w>": 19173,
  "benton</w>": 22427,
  "benz</w>": 20379,
  "bequ": 24251,
  "ber": 778,
  "ber-": 25927,
  "ber</w>": 2447,
  "bered</w>": 11290,
  "berg": 11349,
  "berg</w>": 2074,
  "bergen</w>": 11887,
  "berger</w>": 8745,
  "bering</w>": 15248,
  "berk": 22727,
  "berkeley</w>": 8318,
  "berkshire</w>": 17660,
  "berland</w>": 29397,
  "berlin</w>": 2893,
  "berman</w>": 18056,
  "bermu": 28532,
  "bermuda</w>": 15223,
  "bern": 9357,
  "bern</w>": 17545,
  "bernar": 28121,
  "bernard</w>": 6915,
  "bernardino</w>": 25834,
  "bernardo</w>": 26508,
  "bernie</w>": 21138,
  "bernstein</w>": 23918,
  "berra</w>": 29505,
  "berries</w>": 14717,
  "berry</w>": 5329,
  "bers</w>": 7315,
  "bert</w>": 4076,
  "berth</w>": 17518,
  "bertie</w>": 24437,
  "berto</w>": 20517,
  "bery</w>": 15062,
  "bes": 24571,
  "bes</w>": 7009,
  "beside</w>": 2151,
  "besides</w>": 3115,
  "besieged</w>": 19524,
  "bess</w>": 22815,
  "best": 20473,
  "best-": 14273,
  "best-known</w>": 17114,
  "best-selling</w>": 15195,
  "best</w>": 281,
  "bestowed</w>": 18902,
  "bestseller</w>": 27496,
  "bet": 4876,
  "bet</w>": 4540,
  "beta</w>": 9216,
  "betes</w>": 30025,
  "beth": 16697,
  "beth</w>": 4879,
  "bethany</w>": 18239,
  "bethel</w>": 22061,
  "bethle": 29848,
  "bethlehem</w>": 24223,
  "betra": 23132,
  "betray</w>": 23130,
  "betrayal</w>": 15651,
  "betrayed</w>": 12138,
  "betro": 27463,
  "bett</w>": 22967,
  "better</w>": 574,
  "betting</w>": 20069,
  "betty</w>": 10161,
  "between</w>": 117,
  "beu": 26257,
  "bever": 23966,
  "beverage</w>": 22755,
  "beverages</w>": 25049,
  "beverly</w>": 13744,
  "bewil": 19641,
  "bey": 13997,
  "bey</w>": 12225,
  "beyonce</w>": 24806,
  "beyond</w>": 1780,
  "bf</w>": 20683,
  "bh": 24803,
  "bha": 6620,
  "bhar": 9294,
  "bhu": 11003,
  "bhutan</w>": 22143,
  "bi": 719,
  "bi-": 15092,
  "bi</w>": 4056,
  "bia</w>": 6863,
  "bial</w>": 18639,
  "bian": 20715,
  "bian</w>": 10283,
  "bianca</w>": 20758,
  "bians</w>": 18391,
  "bias</w>": 13893,
  "biased</w>": 24078,
  "bible</w>": 5617,
  "bibli": 28664,
  "biblical</w>": 10478,
  "biblio": 19285,
  "bibliography</w>": 23516,
  "bic": 6298,
  "bic</w>": 8162,
  "bick": 21144,
  "bicy": 28348,
  "bicycle</w>": 10458,
  "bicycles</w>": 23930,
  "bid": 23290,
  "bid</w>": 4844,
  "bidae</w>": 25485,
  "bidding</w>": 19348,
  "bids</w>": 20810,
  "bie": 26270,
  "bie</w>": 7439,
  "bien": 20949,
  "biennial</w>": 26342,
  "bies</w>": 12072,
  "big": 10681,
  "big-": 20930,
  "big</w>": 623,
  "bigger</w>": 6059,
  "biggest</w>": 3903,
  "bihar</w>": 18214,
  "bike</w>": 6665,
  "bikes</w>": 18079,
  "bikini</w>": 23667,
  "bil": 3796,
  "bil</w>": 15952,
  "bilateral</w>": 20242,
  "bile</w>": 18769,
  "bili": 16516,
  "bilingual</w>": 20494,
  "bilities</w>": 28394,
  "bility</w>": 8029,
  "bill": 8794,
  "bill</w>": 1347,
  "billboard</w>": 3326,
  "billed</w>": 16194,
  "billi": 23209,
  "billie</w>": 22705,
  "billion": 29033,
  "billion</w>": 3266,
  "billionaire</w>": 26204,
  "bills</w>": 6657,
  "billy</w>": 4302,
  "bilt</w>": 29840,
  "bim": 23535,
  "bin": 4276,
  "bin</w>": 4661,
  "binary</w>": 13566,
  "bind</w>": 14205,
  "binding</w>": 7312,
  "binds</w>": 23959,
  "bine</w>": 23269,
  "bing</w>": 8263,
  "bio": 3359,
  "bio-": 27190,
  "bio</w>": 15521,
  "biodiversity</w>": 19745,
  "biographer</w>": 18663,
  "biographical</w>": 20070,
  "biographies</w>": 23559,
  "biography</w>": 8673,
  "biological</w>": 6116,
  "biologist</w>": 23503,
  "biology</w>": 6392,
  "biom": 16848,
  "biome": 28685,
  "biomedical</w>": 26496,
  "biop": 22692,
  "biotechnology</w>": 25835,
  "bious</w>": 30105,
  "bir": 4336,
  "bir</w>": 23712,
  "birch</w>": 19563,
  "bird": 19345,
  "bird</w>": 2800,
  "birds</w>": 2852,
  "birmingham</w>": 5775,
  "birth": 21202,
  "birth</w>": 2409,
  "birthday</w>": 4719,
  "birthplace</w>": 15870,
  "births</w>": 21369,
  "bis": 5004,
  "bis</w>": 12980,
  "biscu": 20626,
  "bisexual</w>": 26084,
  "bish": 27836,
  "bishop": 28016,
  "bishop</w>": 1889,
  "bishopric</w>": 18636,
  "bishops</w>": 8260,
  "bismarck</w>": 27298,
  "bison</w>": 19442,
  "bit": 4925,
  "bit</w>": 1046,
  "bital</w>": 29260,
  "bitch</w>": 6819,
  "bite</w>": 5458,
  "bited</w>": 27689,
  "bites</w>": 15073,
  "biting</w>": 7470,
  "bition</w>": 29860,
  "bits</w>": 6273,
  "bitten</w>": 20535,
  "bitter": 27558,
  "bitter</w>": 8319,
  "bitterly</w>": 21010,
  "bitterness</w>": 25148,
  "bius</w>": 19589,
  "bizar": 28941,
  "bizarre</w>": 14543,
  "bjor": 19261,
  "bjorn</w>": 23399,
  "bk</w>": 24924,
  "bl": 2390,
  "bl</w>": 12330,
  "bla": 3288,
  "bla</w>": 26979,
  "black": 2704,
  "black-": 12242,
  "black-and-": 29436,
  "black-and-white</w>": 21336,
  "black</w>": 400,
  "blackburn</w>": 16079,
  "blackness</w>": 21488,
  "blackpool</w>": 19246,
  "blacks</w>": 10590,
  "blacksmith</w>": 24925,
  "blackwell</w>": 26832,
  "bladder</w>": 26394,
  "blade</w>": 4871,
  "blades</w>": 10261,
  "blaine</w>": 23791,
  "blair</w>": 11367,
  "blake</w>": 5897,
  "blame</w>": 6644,
  "blamed</w>": 11065,
  "blaming</w>": 26997,
  "blan": 6383,
  "blanc</w>": 18217,
  "blanche</w>": 23049,
  "blanco</w>": 25871,
  "bland</w>": 18351,
  "blank</w>": 8314,
  "blanket</w>": 8126,
  "blankets</w>": 15893,
  "blast</w>": 7628,
  "blasted</w>": 19638,
  "blasts</w>": 25767,
  "blat": 20754,
  "blaze</w>": 17101,
  "blazing</w>": 18730,
  "ble": 4059,
  "ble</w>": 3016,
  "bleak</w>": 24725,
  "bled</w>": 10342,
  "bledon</w>": 29697,
  "bleed</w>": 21567,
  "bleeding</w>": 9140,
  "blen": 18151,
  "blend</w>": 13113,
  "blended</w>": 22323,
  "blending</w>": 26784,
  "bler</w>": 10714,
  "blers</w>": 21754,
  "bles</w>": 7501,
  "bless</w>": 21954,
  "blessed</w>": 10834,
  "blessing</w>": 14302,
  "blew</w>": 7961,
  "bley</w>": 27595,
  "bli": 6521,
  "blies</w>": 29749,
  "blin": 8904,
  "blin</w>": 28010,
  "blind": 22795,
  "blind</w>": 5674,
  "blinded</w>": 23124,
  "blinding</w>": 21652,
  "bling</w>": 8170,
  "blings</w>": 28944,
  "blink</w>": 12888,
  "blinked</w>": 6215,
  "blinking</w>": 15072,
  "bliss</w>": 14853,
  "blitz</w>": 25812,
  "blizzard</w>": 25405,
  "blo": 5188,
  "bloc": 22293,
  "bloc</w>": 17535,
  "block": 12860,
  "block</w>": 2145,
  "blockade</w>": 17176,
  "blocked</w>": 7659,
  "blocking</w>": 10705,
  "blocks</w>": 4773,
  "blog": 19191,
  "blog</w>": 9822,
  "blogs</w>": 26605,
  "blon": 20074,
  "blond</w>": 8291,
  "blonde</w>": 8962,
  "bloo": 12264,
  "blood": 7491,
  "blood-": 16799,
  "blood</w>": 804,
  "bloody</w>": 5647,
  "bloom": 13103,
  "bloom</w>": 14833,
  "bloomberg</w>": 27347,
  "blos": 29960,
  "blossom": 20590,
  "blossom</w>": 25069,
  "blouse</w>": 19516,
  "blow": 19444,
  "blow</w>": 5279,
  "blowing</w>": 11000,
  "blown</w>": 10189,
  "blows</w>": 14501,
  "blu": 4428,
  "blu-ray</w>": 17327,
  "blue": 13851,
  "blue-": 12516,
  "blue</w>": 882,
  "bluegrass</w>": 25984,
  "blues</w>": 4795,
  "bluff</w>": 15449,
  "blun": 18190,
  "blunt</w>": 17064,
  "blur": 16292,
  "blur</w>": 15797,
  "blurred</w>": 20193,
  "blurted</w>": 19213,
  "blush</w>": 17865,
  "blushed</w>": 18921,
  "bly": 17348,
  "bly</w>": 8228,
  "bm</w>": 26429,
  "bmw</w>": 14466,
  "bn</w>": 18074,
  "bo": 493,
  "bo</w>": 2443,
  "boa</w>": 18850,
  "boar": 15132,
  "board": 22638,
  "board</w>": 607,
  "boarded</w>": 17400,
  "boarding</w>": 7526,
  "boards</w>": 5304,
  "boasted</w>": 25992,
  "boasts</w>": 24699,
  "boat": 26888,
  "boat</w>": 2190,
  "boating</w>": 26262,
  "boats</w>": 4311,
  "bob": 13243,
  "bob</w>": 2903,
  "bobby</w>": 6156,
  "bock</w>": 25765,
  "bod": 11108,
  "bodied</w>": 14553,
  "bodies</w>": 2567,
  "bodily</w>": 23907,
  "bodo</w>": 26276,
  "body": 12514,
  "body</w>": 336,
  "bodyguard</w>": 18548,
  "boeing</w>": 11531,
  "boer</w>": 21729,
  "bog": 17196,
  "bog</w>": 23009,
  "bogota</w>": 26946,
  "boh": 21501,
  "bohem": 28527,
  "bohemia</w>": 19272,
  "bohemian</w>": 21210,
  "boiled</w>": 18604,
  "boiler</w>": 17248,
  "boilers</w>": 22446,
  "boiling</w>": 17558,
  "bois</w>": 16660,
  "boise</w>": 24218,
  "bok</w>": 22654,
  "bol": 3082,
  "bol</w>": 14520,
  "bold</w>": 7547,
  "boldt</w>": 29746,
  "bole": 25155,
  "boli": 16764,
  "bolivia</w>": 13449,
  "bollywood</w>": 17713,
  "bolog": 29149,
  "bologna</w>": 16521,
  "bolsh": 29498,
  "bolshevi": 17840,
  "bolt</w>": 8749,
  "bolted</w>": 19419,
  "bolton</w>": 13075,
  "bolts</w>": 19210,
  "bom": 9940,
  "bomb": 28253,
  "bomb</w>": 5150,
  "bombar": 17028,
  "bombardment</w>": 12967,
  "bombay</w>": 13503,
  "bombed</w>": 20890,
  "bomber</w>": 10305,
  "bombers</w>": 10817,
  "bombing</w>": 8024,
  "bombings</w>": 22592,
  "bombs</w>": 10035,
  "bon": 2407,
  "bon</w>": 8950,
  "bonaparte</w>": 25561,
  "bond</w>": 4226,
  "bonded</w>": 23226,
  "bonding</w>": 21807,
  "bonds</w>": 9344,
  "bone</w>": 3859,
  "bones</w>": 4387,
  "boni": 19671,
  "bonn</w>": 24747,
  "bonne</w>": 22201,
  "bonnet</w>": 26837,
  "bonnie</w>": 13710,
  "bono</w>": 26147,
  "bonus</w>": 7074,
  "bony</w>": 25527,
  "boo": 3400,
  "boo</w>": 23414,
  "book": 6840,
  "book</w>": 388,
  "booked</w>": 18666,
  "booker</w>": 20510,
  "booking</w>": 24896,
  "booklet</w>": 23156,
  "books</w>": 994,
  "bookstore</w>": 25231,
  "boom</w>": 8506,
  "boone</w>": 17163,
  "boost</w>": 13612,
  "boot": 18532,
  "boot</w>": 8425,
  "booth</w>": 8652,
  "boots</w>": 5789,
  "bor": 1770,
  "bor</w>": 14749,
  "bordeaux</w>": 19750,
  "border": 23279,
  "border</w>": 2023,
  "bordered</w>": 11205,
  "bordering</w>": 20071,
  "borders</w>": 5599,
  "bore": 13175,
  "bore</w>": 7567,
  "bored</w>": 10610,
  "borg</w>": 8645,
  "boring</w>": 11117,
  "boris</w>": 13348,
  "born</w>": 172,
  "borne</w>": 9531,
  "borneo</w>": 19279,
  "boro</w>": 10340,
  "borough</w>": 3282,
  "boroughs</w>": 23524,
  "borrow</w>": 19400,
  "borrowed</w>": 11959,
  "borrowing</w>": 27320,
  "bos": 17098,
  "bos</w>": 12463,
  "bosch</w>": 23406,
  "bose</w>": 20519,
  "bosni": 27687,
  "bosnia</w>": 9901,
  "bosnian</w>": 19438,
  "boss</w>": 4823,
  "bosses</w>": 26237,
  "boston</w>": 2297,
  "bot": 8067,
  "bot</w>": 15756,
  "botan": 29001,
  "botanical</w>": 14336,
  "botanist</w>": 18932,
  "botany</w>": 19247,
  "both</w>": 144,
  "bother</w>": 7685,
  "bothered</w>": 10930,
  "bothering</w>": 18095,
  "bots</w>": 22691,
  "botswana</w>": 24091,
  "bott": 9624,
  "bottle</w>": 4640,
  "bottles</w>": 10998,
  "bottom": 26550,
  "bottom</w>": 2335,
  "bou": 4091,
  "bou</w>": 26696,
  "bought</w>": 2502,
  "boul": 20819,
  "boulder</w>": 14686,
  "boulders</w>": 24882,
  "boulev": 29221,
  "boulevard</w>": 8136,
  "boun": 13591,
  "bounce</w>": 20317,
  "bounced</w>": 13772,
  "bouncing</w>": 17487,
  "bound</w>": 3152,
  "boundaries</w>": 6595,
  "boundary</w>": 5192,
  "bounded</w>": 9974,
  "bounds</w>": 21743,
  "bounty</w>": 19803,
  "bour": 6985,
  "bourbon</w>": 19156,
  "bourg</w>": 18003,
  "bourgeo": 20755,
  "bourne": 29662,
  "bourne</w>": 7916,
  "bournemouth</w>": 27080,
  "bout</w>": 10073,
  "bouts</w>": 25980,
  "bow": 4740,
  "bow</w>": 4906,
  "bowed</w>": 10162,
  "bowen</w>": 19239,
  "bowie</w>": 17682,
  "bowing</w>": 27246,
  "bowl</w>": 2993,
  "bowled</w>": 21239,
  "bowler</w>": 15937,
  "bowling</w>": 8835,
  "bowls</w>": 16159,
  "bowman</w>": 23577,
  "bows</w>": 17818,
  "box": 12226,
  "box</w>": 1562,
  "boxer</w>": 10347,
  "boxers</w>": 19240,
  "boxes</w>": 6953,
  "boxing</w>": 7116,
  "boy": 5633,
  "boy</w>": 1034,
  "boycott</w>": 19255,
  "boyd</w>": 13840,
  "boyfriend</w>": 6008,
  "boyle</w>": 20099,
  "boys</w>": 1677,
  "boz": 26822,
  "bp</w>": 16784,
  "br": 1701,
  "br**": 29995,
  "br**sts</w>": 9610,
  "br</w>": 1396,
  "bra": 1803,
  "bra</w>": 5485,
  "brab": 26373,
  "brac": 15193,
  "brace</w>": 18677,
  "braced</w>": 16343,
  "bracelet</w>": 21570,
  "braces</w>": 26123,
  "bracing</w>": 27624,
  "brack": 18203,
  "bracket</w>": 25382,
  "brackets</w>": 22334,
  "brad": 7705,
  "brad</w>": 8502,
  "bradford</w>": 10392,
  "bradley</w>": 9443,
  "brady</w>": 10369,
  "brae</w>": 22883,
  "brag": 14471,
  "brah": 9269,
  "brain": 21333,
  "brain</w>": 2661,
  "brains</w>": 15257,
  "brake</w>": 14478,
  "brakes</w>": 14477,
  "bral</w>": 28241,
  "bram": 14722,
  "bram</w>": 21982,
  "bran": 3651,
  "bran</w>": 23859,
  "branch</w>": 1957,
  "branched</w>": 22946,
  "branches</w>": 4423,
  "branching</w>": 26522,
  "brand</w>": 2908,
  "branded</w>": 11119,
  "brandenburg</w>": 20990,
  "branding</w>": 15032,
  "brandon</w>": 9080,
  "brands</w>": 9152,
  "brandt</w>": 21717,
  "brandy</w>": 20808,
  "bras": 23077,
  "bras</w>": 17230,
  "brass</w>": 9360,
  "brate</w>": 25358,
  "brates</w>": 18449,
  "brati": 25766,
  "brave</w>": 9318,
  "bravery</w>": 19185,
  "braves</w>": 15739,
  "bravo</w>": 21700,
  "brawl</w>": 25801,
  "bray</w>": 17614,
  "braz": 16938,
  "brazil</w>": 3217,
  "brazilian</w>": 5191,
  "bre": 1722,
  "bre</w>": 10645,
  "brea": 23481,
  "breach</w>": 13485,
  "bread": 19844,
  "bread</w>": 6749,
  "break": 6866,
  "break</w>": 1580,
  "breakdown</w>": 13351,
  "breaker</w>": 16158,
  "breakers</w>": 20281,
  "breakfast</w>": 5275,
  "breaking</w>": 3419,
  "breaks</w>": 6464,
  "breakthrough</w>": 13326,
  "breakup</w>": 20793,
  "breast": 16871,
  "breast</w>": 6718,
  "breasts</w>": 12906,
  "breath": 13524,
  "breath</w>": 1210,
  "breathe</w>": 6170,
  "breathed</w>": 7716,
  "breathing</w>": 4178,
  "breathless</w>": 17953,
  "breaths</w>": 12922,
  "brec": 17723,
  "brecht</w>": 20437,
  "bred</w>": 12052,
  "bree": 18823,
  "bree</w>": 22250,
  "breed": 28967,
  "breed</w>": 8042,
  "breeders</w>": 23663,
  "breeding</w>": 6916,
  "breeds</w>": 16942,
  "breeze</w>": 9094,
  "bremen</w>": 20100,
  "bren": 8216,
  "brenda</w>": 19138,
  "brendan</w>": 18483,
  "brennan</w>": 15303,
  "brent</w>": 15992,
  "bres</w>": 26760,
  "bret</w>": 24212,
  "brethren</w>": 20337,
  "breton</w>": 20225,
  "brett</w>": 13867,
  "brevi": 28610,
  "brew": 24180,
  "brew</w>": 24706,
  "brewer</w>": 22693,
  "brewers</w>": 23565,
  "brewery</w>": 12235,
  "brewing</w>": 16948,
  "brey</w>": 29460,
  "bri": 1521,
  "bria</w>": 12086,
  "brian</w>": 3501,
  "bric": 17260,
  "brick": 22317,
  "brick</w>": 3869,
  "bricks</w>": 14893,
  "brid": 8728,
  "bride</w>": 8551,
  "brides</w>": 26862,
  "bridge": 12762,
  "bridge</w>": 961,
  "bridges</w>": 6510,
  "bridget</w>": 23380,
  "brief": 13527,
  "brief</w>": 3313,
  "briefcase</w>": 24252,
  "briefly</w>": 3285,
  "brien</w>": 28808,
  "brig": 17454,
  "briga": 28418,
  "brigade</w>": 3150,
  "brigades</w>": 15936,
  "brigadier</w>": 11856,
  "briggs</w>": 18013,
  "brigh": 15588,
  "brigham</w>": 27054,
  "bright": 28018,
  "bright</w>": 2707,
  "brighter</w>": 17573,
  "brightly</w>": 14505,
  "brightness</w>": 20131,
  "brighton</w>": 10609,
  "brilli": 20104,
  "brilliant</w>": 7578,
  "brin": 22106,
  "bring</w>": 1512,
  "bringing</w>": 3399,
  "brings</w>": 6755,
  "brink</w>": 22950,
  "bris": 28870,
  "bris</w>": 28748,
  "brisbane</w>": 7265,
  "bristol</w>": 6555,
  "brit": 5836,
  "britain</w>": 2127,
  "british-": 20593,
  "british</w>": 393,
  "brittany</w>": 13538,
  "brium</w>": 29376,
  "bro": 1941,
  "bro</w>": 11425,
  "broad": 7002,
  "broad</w>": 3896,
  "broadband</w>": 23286,
  "broadca": 29807,
  "broadcast</w>": 2038,
  "broadcaster</w>": 12759,
  "broadcasters</w>": 19789,
  "broadcasting</w>": 3752,
  "broadcasts</w>": 8304,
  "broader</w>": 12739,
  "broadly</w>": 14192,
  "broadway</w>": 5195,
  "brock": 20780,
  "brock</w>": 15403,
  "brody</w>": 22091,
  "broke</w>": 1860,
  "broken</w>": 1960,
  "broker</w>": 20123,
  "brom": 14731,
  "bron": 7191,
  "bron</w>": 24454,
  "broncos</w>": 14918,
  "bronx</w>": 16524,
  "bronze</w>": 3226,
  "broo": 11237,
  "brook": 12075,
  "brook</w>": 5426,
  "brooke</w>": 10264,
  "brooklyn</w>": 6044,
  "brooks</w>": 8636,
  "broom</w>": 26852,
  "bros.</w>": 11913,
  "brother": 26641,
  "brother-in-law</w>": 15842,
  "brother</w>": 722,
  "brotherhood</w>": 14007,
  "brothers</w>": 1718,
  "brough</w>": 27885,
  "brought</w>": 829,
  "brow": 8606,
  "brow</w>": 7073,
  "brown": 14767,
  "brown</w>": 1102,
  "browne</w>": 18618,
  "browning</w>": 23145,
  "brownish</w>": 24883,
  "browns</w>": 13846,
  "brows</w>": 11082,
  "browser</w>": 20108,
  "bru": 3055,
  "bruce</w>": 5177,
  "bruck": 22394,
  "bruck</w>": 23996,
  "bruins</w>": 20190,
  "bruised</w>": 20223,
  "bruises</w>": 19934,
  "brun": 7026,
  "brunei</w>": 23401,
  "bruno</w>": 12323,
  "brunswick</w>": 9513,
  "brus": 29000,
  "brush</w>": 6417,
  "brushed</w>": 6724,
  "brushes</w>": 23365,
  "brushing</w>": 12689,
  "brussels</w>": 10371,
  "brutal</w>": 12335,
  "brutality</w>": 27384,
  "brutally</w>": 25947,
  "bry": 11848,
  "bryan</w>": 9218,
  "bryant</w>": 14633,
  "bryce</w>": 23659,
  "bryn": 19070,
  "bryn</w>": 22276,
  "bs</w>": 2079,
  "bt</w>": 16859,
  "bu": 570,
  "bu</w>": 6666,
  "bubb": 22397,
  "bubba</w>": 21939,
  "bubble</w>": 12727,
  "bubbles</w>": 19323,
  "buc": 28755,
  "buccane": 29323,
  "buccaneers</w>": 25300,
  "buchan": 29694,
  "buchanan</w>": 17215,
  "bucharest</w>": 16608,
  "buck": 8545,
  "buck</w>": 9214,
  "bucket</w>": 14334,
  "buckingham</w>": 21012,
  "buckinghamshire</w>": 25645,
  "buckle</w>": 21150,
  "buckled</w>": 24841,
  "buckley</w>": 22165,
  "bucks</w>": 12112,
  "bud": 7964,
  "bud</w>": 12660,
  "budapest</w>": 12642,
  "budd": 25466,
  "buddha</w>": 13364,
  "buddhi": 28033,
  "buddhism</w>": 11834,
  "buddhist</w>": 7563,
  "buddies</w>": 27450,
  "buddy</w>": 9481,
  "budge": 25735,
  "budget</w>": 3843,
  "buds</w>": 26155,
  "buenos</w>": 9469,
  "buff": 10066,
  "buffalo</w>": 6432,
  "buffer</w>": 20406,
  "buffy</w>": 21895,
  "bug": 22067,
  "bug</w>": 11697,
  "bugs</w>": 13153,
  "buil": 14448,
  "build</w>": 2281,
  "builder</w>": 12108,
  "builders</w>": 15397,
  "building</w>": 353,
  "buildings</w>": 1294,
  "builds</w>": 17857,
  "built-in</w>": 22710,
  "built</w>": 389,
  "bul": 3289,
  "bul</w>": 27546,
  "bula</w>": 18754,
  "bular</w>": 16888,
  "bulary</w>": 27906,
  "bulb": 26339,
  "bulb</w>": 21088,
  "bulbs</w>": 26651,
  "bulgaria</w>": 8210,
  "bulgarian</w>": 8131,
  "bulge</w>": 26829,
  "bulk</w>": 9284,
  "bull": 8461,
  "bull</w>": 5724,
  "bulldogs</w>": 15077,
  "bulle": 28825,
  "bullet": 27312,
  "bullet</w>": 7560,
  "bulletin</w>": 16598,
  "bullets</w>": 10431,
  "bulls</w>": 13030,
  "bullshit</w>": 14794,
  "bully</w>": 24563,
  "bullying</w>": 20129,
  "bulous</w>": 29429,
  "bump</w>": 19145,
  "bumped</w>": 20852,
  "bumper</w>": 25619,
  "bumps</w>": 18083,
  "bun": 3155,
  "bun</w>": 17452,
  "bunch</w>": 8632,
  "bund</w>": 23057,
  "bunde": 26483,
  "bundesliga</w>": 15822,
  "bundle</w>": 14902,
  "bungal": 25701,
  "bunk</w>": 26785,
  "bunker</w>": 17462,
  "bunny</w>": 20304,
  "bur": 1282,
  "bur</w>": 14304,
  "burden</w>": 10941,
  "bure": 20932,
  "bureau": 29982,
  "bureau</w>": 3585,
  "bureaucr": 15174,
  "burg": 17132,
  "burg-": 16900,
  "burg</w>": 2994,
  "burger</w>": 10449,
  "burgess</w>": 21711,
  "burgh": 24622,
  "burgh</w>": 12262,
  "burgun": 28615,
  "burgundy</w>": 21387,
  "buri": 28636,
  "burial</w>": 8498,
  "burials</w>": 26208,
  "buried</w>": 2294,
  "burke</w>": 11016,
  "burlington</w>": 18149,
  "burma</w>": 11970,
  "burmese</w>": 17816,
  "burn": 11980,
  "burn</w>": 3273,
  "burne</w>": 25111,
  "burned</w>": 3882,
  "burnett</w>": 15138,
  "burning</w>": 4005,
  "burnley</w>": 26722,
  "burns</w>": 7216,
  "burnt</w>": 11407,
  "burrows</w>": 26126,
  "burst</w>": 4831,
  "bursting</w>": 23723,
  "bursts</w>": 18088,
  "burt</w>": 22447,
  "burton</w>": 9173,
  "bury</w>": 3018,
  "burying</w>": 22623,
  "bus": 20477,
  "bus</w>": 1705,
  "busch</w>": 16862,
  "buses</w>": 6544,
  "bush": 12551,
  "bush</w>": 4503,
  "bushes</w>": 14936,
  "busi": 22947,
  "busiest</w>": 22389,
  "busin": 29956,
  "busines": 28884,
  "business": 18851,
  "business</w>": 551,
  "businesses</w>": 4452,
  "businessman</w>": 6443,
  "businessmen</w>": 18848,
  "bust</w>": 15040,
  "busted</w>": 25383,
  "buster</w>": 14224,
  "bustion</w>": 30055,
  "busy</w>": 4422,
  "but": 5033,
  "but-</w>": 22806,
  "but</w>": 46,
  "butch</w>": 21207,
  "butcher</w>": 17158,
  "butler</w>": 7056,
  "butt": 15194,
  "butt</w>": 9639,
  "butter": 15389,
  "butter</w>": 13086,
  "butterflies</w>": 16390,
  "butterfly</w>": 9033,
  "button</w>": 5554,
  "buttoned</w>": 27162,
  "buttons</w>": 11380,
  "buy": 25936,
  "buy</w>": 3669,
  "buyer</w>": 20132,
  "buyers</w>": 19000,
  "buying</w>": 8820,
  "buz": 28462,
  "buzz": 16278,
  "buzz</w>": 13600,
  "buzzed</w>": 23544,
  "buzzing</w>": 22239,
  "bw": 20528,
  "by": 3160,
  "by-": 6882,
  "by-election</w>": 10126,
  "by</w>": 38,
  "bycidae</w>": 29938,
  "bye</w>": 12079,
  "byl</w>": 26058,
  "byn</w>": 23672,
  "bypass</w>": 12283,
  "byr": 27507,
  "byrd</w>": 21631,
  "byrne</w>": 18350,
  "byron</w>": 14076,
  "byu</w>": 26534,
  "byz": 21479,
  "byzantine</w>": 8494,
  "c": 315,
  "c**": 30002,
  "c**k</w>": 14396,
  "c-": 3528,
  "c.": 5508,
  "c.</w>": 2653,
  "c1</w>": 21165,
  "c2</w>": 22380,
  "c</w>": 308,
  "ca": 1383,
  "ca-": 28174,
  "ca</w>": 1428,
  "caa</w>": 25683,
  "cab": 4939,
  "cab</w>": 9028,
  "cabaret</w>": 24618,
  "cabin</w>": 5656,
  "cabine": 28823,
  "cabinet</w>": 3948,
  "cabinets</w>": 22311,
  "cabins</w>": 23034,
  "cable</w>": 4759,
  "cables</w>": 16858,
  "cac": 10429,
  "cache</w>": 20652,
  "cad": 5991,
  "cade": 27042,
  "cade</w>": 14267,
  "caden</w>": 25910,
  "cadence</w>": 27172,
  "cadet</w>": 14502,
  "cadets</w>": 17099,
  "cadil": 28195,
  "cadillac</w>": 24958,
  "caes": 24678,
  "caesar</w>": 12781,
  "caf": 17567,
  "caf</w>": 17467,
  "cafe</w>": 7995,
  "cafeter": 29562,
  "cafeteria</w>": 18442,
  "caff": 21358,
  "cag": 15424,
  "cage</w>": 6982,
  "cai": 15046,
  "cain</w>": 11668,
  "caine</w>": 21255,
  "cair": 21091,
  "cairns</w>": 26280,
  "cairo</w>": 12272,
  "cait": 27063,
  "cake</w>": 8044,
  "cakes</w>": 15216,
  "cal": 1408,
  "cal</w>": 5077,
  "calab": 21927,
  "calau": 27406,
  "calci": 28545,
  "calcium</w>": 15855,
  "calcu": 29842,
  "calcul": 23051,
  "calculate</w>": 21277,
  "calculated</w>": 9928,
  "calculating</w>": 22921,
  "calculation</w>": 19019,
  "calculations</w>": 18014,
  "calculus</w>": 23713,
  "calcutta</w>": 15005,
  "calder": 25582,
  "calder</w>": 22931,
  "caldwell</w>": 20040,
  "cale</w>": 19869,
  "caleb</w>": 9817,
  "caled": 27667,
  "caledonia</w>": 24144,
  "calendar</w>": 7103,
  "calf</w>": 18343,
  "calgary</w>": 11107,
  "cali": 6323,
  "caliber</w>": 17537,
  "califor": 19744,
  "california</w>": 835,
  "call": 8422,
  "call-": 25945,
  "call</w>": 787,
  "calla": 24010,
  "called</w>": 208,
  "caller</w>": 24013,
  "calli": 11424,
  "callie</w>": 21679,
  "calling</w>": 2630,
  "calls</w>": 2925,
  "callum</w>": 13921,
  "cally</w>": 9582,
  "calm</w>": 4051,
  "calmed</w>": 22707,
  "calming</w>": 26407,
  "calmly</w>": 12974,
  "calves</w>": 26299,
  "calvin</w>": 11816,
  "calyp": 18292,
  "cam": 2216,
  "cam</w>": 10338,
  "cambo": 25152,
  "cambodia</w>": 14362,
  "cambrian</w>": 27502,
  "cambridge</w>": 3976,
  "camden</w>": 14566,
  "came</w>": 265,
  "camel</w>": 23561,
  "cameo</w>": 15066,
  "camer": 14283,
  "camera</w>": 3758,
  "cameras</w>": 8064,
  "cameron</w>": 6879,
  "cameroon</w>": 16210,
  "camille</w>": 20571,
  "camou": 29968,
  "camoufl": 28739,
  "camouflage</w>": 24352,
  "camp": 4688,
  "camp</w>": 1666,
  "campaig": 27901,
  "campaign</w>": 1251,
  "campaigned</w>": 17253,
  "campaigning</w>": 20347,
  "campaigns</w>": 7261,
  "campbell</w>": 5807,
  "campe": 28631,
  "camped</w>": 25157,
  "campeonato</w>": 26535,
  "camping</w>": 14043,
  "camps</w>": 7050,
  "campu": 29271,
  "campus</w>": 2102,
  "campuses</w>": 14359,
  "can": 1191,
  "can</w>": 92,
  "cana</w>": 25487,
  "canada</w>": 915,
  "canadi": 27796,
  "canadian</w>": 1284,
  "canadians</w>": 18408,
  "canadiens</w>": 25797,
  "canal</w>": 3575,
  "canals</w>": 19055,
  "canary</w>": 20486,
  "canberra</w>": 14984,
  "cancel": 28740,
  "cancel</w>": 19305,
  "canceled</w>": 13940,
  "cancell": 29004,
  "cancellation</w>": 18545,
  "cancelled</w>": 7289,
  "cancer</w>": 3086,
  "cand": 8693,
  "candace</w>": 26592,
  "candi": 17209,
  "candid": 29240,
  "candidacy</w>": 18785,
  "candidate</w>": 2479,
  "candidates</w>": 4017,
  "candle</w>": 14815,
  "candles</w>": 14693,
  "candy</w>": 9885,
  "cane": 29028,
  "cane</w>": 9031,
  "cani": 18464,
  "cann": 28921,
  "cannab": 28847,
  "cannabis</w>": 19931,
  "cannes</w>": 16776,
  "canni": 21058,
  "cannon</w>": 8805,
  "cannons</w>": 18993,
  "cannot</w>": 3193,
  "cano": 17168,
  "cano</w>": 24050,
  "canoe</w>": 15430,
  "canoes</w>": 28173,
  "canon": 28310,
  "canon</w>": 9423,
  "canonical</w>": 20545,
  "canons</w>": 25568,
  "canopy</w>": 15641,
  "cans</w>": 12410,
  "canter": 29107,
  "canterbury</w>": 10747,
  "canton": 20325,
  "canton</w>": 8065,
  "cants</w>": 29490,
  "canu": 27044,
  "canvas</w>": 11666,
  "canyon</w>": 8091,
  "cao</w>": 12158,
  "cap": 2310,
  "cap</w>": 4886,
  "capabilities</w>": 9930,
  "capability</w>": 11219,
  "capable</w>": 3864,
  "capac": 20837,
  "capaci": 29515,
  "capacities</w>": 24256,
  "capacity</w>": 2522,
  "cape</w>": 3629,
  "capit": 12515,
  "capita</w>": 7426,
  "capital": 28284,
  "capital</w>": 1232,
  "capitali": 21657,
  "capitalism</w>": 19302,
  "capitalist</w>": 22935,
  "capitals</w>": 17060,
  "capitol</w>": 9906,
  "capp": 18286,
  "capped</w>": 13830,
  "caps</w>": 9319,
  "capsu": 28223,
  "capsule</w>": 20723,
  "capt.</w>": 27158,
  "captain</w>": 1285,
  "captained</w>": 16637,
  "captains</w>": 15811,
  "captive</w>": 13119,
  "captives</w>": 25034,
  "captivity</w>": 17604,
  "capture</w>": 4223,
  "captured</w>": 2501,
  "captures</w>": 22848,
  "capturing</w>": 11888,
  "car": 538,
  "car</w>": 554,
  "cara</w>": 11076,
  "carab": 22400,
  "carac": 20080,
  "carav": 24504,
  "caravan</w>": 20151,
  "carb": 13565,
  "carbon": 12400,
  "carbon</w>": 5339,
  "carcin": 21070,
  "card": 28118,
  "card</w>": 2363,
  "cardboard</w>": 22589,
  "cardi": 10374,
  "cardiac</w>": 17053,
  "cardiff</w>": 10499,
  "cardin": 27591,
  "cardinal</w>": 7242,
  "cardinals</w>": 8988,
  "cardo</w>": 28179,
  "cards</w>": 3887,
  "care": 12143,
  "care</w>": 856,
  "cared</w>": 7853,
  "career-": 27656,
  "career-high</w>": 22085,
  "career</w>": 571,
  "careers</w>": 11114,
  "careful</w>": 4921,
  "carefully</w>": 3961,
  "cares</w>": 15919,
  "caress</w>": 24141,
  "caressed</w>": 23504,
  "caretaker</w>": 20301,
  "carey</w>": 13180,
  "cargo</w>": 5799,
  "cari": 14274,
  "carib": 29470,
  "caribbean</w>": 6511,
  "caric": 24322,
  "caring</w>": 11404,
  "carl": 15873,
  "carl</w>": 5099,
  "carla</w>": 22166,
  "carlisle</w>": 14988,
  "carlo</w>": 10529,
  "carlos</w>": 5612,
  "carlton</w>": 15196,
  "carly</w>": 20493,
  "carmel": 24629,
  "carmel</w>": 23465,
  "carmen</w>": 13775,
  "carmine</w>": 21211,
  "carne": 28878,
  "carnegie</w>": 12054,
  "carni": 14892,
  "carnival</w>": 12593,
  "carol": 15041,
  "carol</w>": 9385,
  "carolina</w>": 2226,
  "caroline</w>": 8011,
  "carolyn</w>": 18748,
  "carp": 27592,
  "carpath": 29653,
  "carpathian</w>": 25583,
  "carpenter</w>": 11584,
  "carpet</w>": 10032,
  "carr</w>": 14458,
  "carri": 13373,
  "carriage</w>": 7391,
  "carriages</w>": 18407,
  "carrie</w>": 14836,
  "carried</w>": 1560,
  "carrier</w>": 6371,
  "carriers</w>": 11447,
  "carries</w>": 7035,
  "carroll</w>": 12012,
  "carry</w>": 2809,
  "carrying</w>": 3321,
  "cars</w>": 1984,
  "carson</w>": 10074,
  "cart</w>": 10102,
  "cartel</w>": 24948,
  "carter</w>": 5031,
  "carth": 27115,
  "carthage</w>": 26525,
  "carto": 18257,
  "cartoon</w>": 9557,
  "cartoonist</w>": 23962,
  "cartoons</w>": 14943,
  "cartri": 29880,
  "cartridge</w>": 16957,
  "cartridges</w>": 26505,
  "carts</w>": 27490,
  "carved</w>": 7014,
  "carver</w>": 24003,
  "carving</w>": 19810,
  "carvings</w>": 25558,
  "cary</w>": 22763,
  "cas": 2341,
  "cas</w>": 14150,
  "casa</w>": 18146,
  "casc": 19375,
  "cascade</w>": 19003,
  "case</w>": 665,
  "cased</w>": 27690,
  "cases</w>": 1750,
  "casey</w>": 9525,
  "cash": 20452,
  "cash</w>": 4245,
  "casing</w>": 19763,
  "casino</w>": 9179,
  "cass": 14211,
  "cass</w>": 14897,
  "cassandra</w>": 17383,
  "cassette</w>": 18451,
  "cassi": 14451,
  "cassidy</w>": 15094,
  "cassie</w>": 7991,
  "cast": 6457,
  "cast</w>": 1604,
  "caste</w>": 15420,
  "castel": 20937,
  "caster</w>": 28009,
  "castile</w>": 18590,
  "castillo</w>": 25528,
  "casting</w>": 8018,
  "castle": 21489,
  "castle</w>": 1606,
  "castles</w>": 16527,
  "castro</w>": 13585,
  "casts</w>": 16998,
  "casu": 28720,
  "casual</w>": 9692,
  "casually</w>": 13403,
  "casualties</w>": 8082,
  "casualty</w>": 23202,
  "casus</w>": 29711,
  "cat": 2169,
  "cat</w>": 3437,
  "catal": 19985,
  "catalan</w>": 16623,
  "catalina</w>": 27299,
  "catalo": 16467,
  "catalog</w>": 13703,
  "catalogue</w>": 12575,
  "catalonia</w>": 18699,
  "cataly": 11405,
  "catalyst</w>": 18746,
  "catastro": 25469,
  "catastrophic</w>": 26952,
  "catch": 26942,
  "catch</w>": 3126,
  "catcher</w>": 12587,
  "catches</w>": 11140,
  "catching</w>": 8406,
  "catchment</w>": 25500,
  "cated</w>": 19988,
  "categ": 29593,
  "categor": 26678,
  "categori": 27794,
  "categories</w>": 6201,
  "categorized</w>": 21910,
  "category</w>": 3215,
  "cater": 16913,
  "cater</w>": 26790,
  "catering</w>": 21436,
  "cath": 26509,
  "cathar": 25330,
  "cathe": 21821,
  "cathedral</w>": 3789,
  "catherine</w>": 6386,
  "catho": 24175,
  "catholic": 29291,
  "catholic</w>": 1541,
  "catholicism</w>": 17611,
  "catholics</w>": 10723,
  "cathy</w>": 22915,
  "cation</w>": 12803,
  "cato</w>": 25352,
  "cats</w>": 7503,
  "cattle</w>": 6300,
  "cau": 4757,
  "cauca": 24373,
  "caucasus</w>": 18883,
  "caucus</w>": 18135,
  "caught</w>": 1405,
  "caul": 16750,
  "cause": 29516,
  "cause</w>": 1790,
  "caused</w>": 1540,
  "causes</w>": 4148,
  "causeway</w>": 26866,
  "causing</w>": 3347,
  "caution</w>": 12904,
  "cautious</w>": 18264,
  "cautiously</w>": 15832,
  "cav": 7244,
  "caval": 27920,
  "cavali": 18956,
  "cavalry</w>": 5137,
  "cave</w>": 4084,
  "caven": 27429,
  "caver": 23714,
  "cavern</w>": 18021,
  "caves</w>": 10483,
  "cavity</w>": 19722,
  "cay": 11410,
  "cb": 9529,
  "cb</w>": 14200,
  "cbc</w>": 14885,
  "cbe</w>": 26844,
  "cbs</w>": 5806,
  "cc": 4460,
  "cc</w>": 5284,
  "cca</w>": 17396,
  "cci</w>": 12286,
  "cco</w>": 16324,
  "cd": 10742,
  "cd-": 26459,
  "cd</w>": 2818,
  "cdc</w>": 25348,
  "cdp</w>": 7771,
  "cds</w>": 15283,
  "ce": 1972,
  "ce-": 9154,
  "ce</w>": 1702,
  "cea</w>": 24217,
  "cease": 29965,
  "cease</w>": 15580,
  "ceased</w>": 5980,
  "ceasefire</w>": 25222,
  "cec": 16412,
  "cecil</w>": 14436,
  "cecilia</w>": 24020,
  "ced": 13827,
  "ced</w>": 8490,
  "cedar</w>": 11840,
  "ceded</w>": 17863,
  "cedes</w>": 29311,
  "cee</w>": 19625,
  "cei": 28635,
  "ceil": 29372,
  "ceiling</w>": 4968,
  "ceilings</w>": 23385,
  "ceived</w>": 30073,
  "cel": 3394,
  "cel</w>": 26484,
  "cele": 24775,
  "celebr": 28300,
  "celebrate</w>": 7814,
  "celebrated</w>": 5259,
  "celebrates</w>": 25846,
  "celebrating</w>": 13742,
  "celebration</w>": 6911,
  "celebrations</w>": 12349,
  "celebri": 29958,
  "celebrities</w>": 12542,
  "celebrity</w>": 8979,
  "celer": 29463,
  "celeste</w>": 26454,
  "celesti": 29112,
  "celestial</w>": 20502,
  "celi": 24576,
  "celia</w>": 20302,
  "cell": 11509,
  "cell</w>": 1817,
  "cellar</w>": 16866,
  "cello</w>": 14834,
  "cells</w>": 3002,
  "cellular</w>": 12889,
  "cels</w>": 27151,
  "celtic</w>": 8420,
  "celyn</w>": 25940,
  "cem": 12293,
  "ceme": 29768,
  "cement</w>": 7728,
  "cements</w>": 15298,
  "cemeteries</w>": 22905,
  "cemetery</w>": 3009,
  "cen": 6001,
  "cence</w>": 23582,
  "cens": 26623,
  "censorship</w>": 17207,
  "censu": 28412,
  "census-": 30003,
  "census-designated</w>": 21424,
  "census</w>": 1095,
  "cent": 5212,
  "cent</w>": 7058,
  "centenary</w>": 20143,
  "centennial</w>": 17679,
  "center": 19134,
  "center</w>": 518,
  "centered</w>": 8345,
  "centers</w>": 5352,
  "centi": 18258,
  "centimeters</w>": 20720,
  "centr": 11052,
  "central</w>": 539,
  "centralized</w>": 26180,
  "centre-": 20591,
  "centre</w>": 1070,
  "centred</w>": 17794,
  "centres</w>": 8475,
  "centri": 19146,
  "centric</w>": 20457,
  "centro</w>": 25456,
  "cents</w>": 15627,
  "centu": 16855,
  "centuries</w>": 3236,
  "century</w>": 426,
  "ceo</w>": 4971,
  "cep": 14242,
  "cephal": 14407,
  "cept</w>": 28810,
  "cer": 2452,
  "cer</w>": 7030,
  "cera</w>": 23702,
  "ceram": 29339,
  "cerambycidae</w>": 13283,
  "ceramic</w>": 16389,
  "ceramics</w>": 20084,
  "cere": 17736,
  "cereal</w>": 23750,
  "cerebral</w>": 21278,
  "cerem": 29869,
  "ceremoni": 28233,
  "ceremonial</w>": 13420,
  "ceremonies</w>": 10950,
  "ceremony</w>": 3645,
  "cers</w>": 9332,
  "certain": 28525,
  "certain</w>": 1255,
  "certainly</w>": 3565,
  "certainty</w>": 17336,
  "certi": 20736,
  "certific": 29543,
  "certificate</w>": 8160,
  "certificates</w>": 20677,
  "certification</w>": 11061,
  "certified</w>": 6615,
  "cery</w>": 22871,
  "ces": 9021,
  "ces</w>": 3470,
  "cesar</w>": 19107,
  "cess": 19794,
  "cess</w>": 29667,
  "cester</w>": 28915,
  "cestershire</w>": 30143,
  "cet</w>": 18598,
  "cey": 28677,
  "cey</w>": 22574,
  "ceylon</w>": 18767,
  "cf": 16246,
  "cf</w>": 11523,
  "cfl</w>": 22358,
  "ch": 503,
  "ch-": 6354,
  "ch</w>": 1169,
  "cha": 3627,
  "cha</w>": 5074,
  "chad": 18869,
  "chad</w>": 10065,
  "chae": 28041,
  "chag": 21017,
  "chai": 26536,
  "chai</w>": 26178,
  "chain</w>": 3327,
  "chained</w>": 22889,
  "chains</w>": 8657,
  "chair": 13947,
  "chair</w>": 1472,
  "chaired</w>": 12360,
  "chairman</w>": 1953,
  "chairperson</w>": 23629,
  "chairs</w>": 7267,
  "chak": 13084,
  "chak</w>": 26797,
  "chal": 7535,
  "chal</w>": 23047,
  "chalk</w>": 19318,
  "chall": 28783,
  "challeng": 28131,
  "challenge</w>": 2794,
  "challenged</w>": 7239,
  "challenger</w>": 12809,
  "challenges</w>": 7365,
  "challenging</w>": 10185,
  "cham": 5901,
  "cham</w>": 21867,
  "chamber": 28222,
  "chamber</w>": 3201,
  "chamberlain</w>": 15860,
  "chambers</w>": 8306,
  "champ": 16163,
  "champ</w>": 17759,
  "champagne</w>": 13353,
  "champi": 27720,
  "champion": 27768,
  "champion</w>": 2096,
  "champions</w>": 2902,
  "championship</w>": 715,
  "championships</w>": 1461,
  "chan": 3833,
  "chan</w>": 7562,
  "chance</w>": 1610,
  "chancel</w>": 17874,
  "chancell": 27628,
  "chancellor</w>": 6763,
  "chances</w>": 9074,
  "chand": 9087,
  "chandler</w>": 16247,
  "chandra</w>": 17996,
  "chang": 10030,
  "chang</w>": 10595,
  "change": 27717,
  "change</w>": 839,
  "changed</w>": 1045,
  "changes</w>": 1683,
  "changing</w>": 3723,
  "chann": 18329,
  "channel</w>": 1397,
  "channels</w>": 5855,
  "chant</w>": 14339,
  "chanting</w>": 25353,
  "chao</w>": 26679,
  "chaos</w>": 8202,
  "chaotic</w>": 22080,
  "chap": 7184,
  "chapel</w>": 3785,
  "chapels</w>": 27180,
  "chaplain</w>": 15880,
  "chapman</w>": 13640,
  "chapter</w>": 1380,
  "chapters</w>": 8772,
  "char": 2376,
  "char</w>": 24042,
  "charac": 29597,
  "character": 9714,
  "character</w>": 1048,
  "characterised</w>": 18337,
  "characteristic</w>": 7306,
  "characteristics</w>": 6145,
  "characterized</w>": 6454,
  "characters</w>": 1731,
  "charcoal</w>": 22121,
  "chard</w>": 13513,
  "chards</w>": 29857,
  "charest</w>": 29708,
  "charge</w>": 2011,
  "charged</w>": 3704,
  "chargers</w>": 19887,
  "charges</w>": 4301,
  "charging</w>": 12749,
  "chari": 14598,
  "charis": 28073,
  "charismatic</w>": 27249,
  "charitable</w>": 11391,
  "charities</w>": 16814,
  "charity</w>": 4967,
  "charle": 15499,
  "charles</w>": 1136,
  "charleston</w>": 11415,
  "charley</w>": 25409,
  "charlie</w>": 3945,
  "charlo": 22609,
  "charlotte</w>": 5079,
  "charlton</w>": 20910,
  "charm</w>": 11274,
  "charming</w>": 12119,
  "chart</w>": 1881,
  "charted</w>": 11446,
  "charter</w>": 5094,
  "chartered</w>": 13196,
  "charters</w>": 26713,
  "charting</w>": 18945,
  "charts</w>": 4801,
  "chas": 19657,
  "chase</w>": 3951,
  "chased</w>": 13652,
  "chasing</w>": 12014,
  "chassis</w>": 12540,
  "chasti": 25324,
  "chat": 5542,
  "chat</w>": 11206,
  "chateau</w>": 13786,
  "chatham</w>": 20419,
  "chatt": 21176,
  "chatting</w>": 24587,
  "chau": 8454,
  "chav": 20270,
  "chavez</w>": 19907,
  "chay": 28045,
  "che": 2146,
  "che</w>": 4305,
  "chea": 29227,
  "cheap</w>": 9886,
  "cheaper</w>": 17941,
  "cheat</w>": 24754,
  "cheated</w>": 24913,
  "cheating</w>": 18205,
  "chec": 11475,
  "check": 11652,
  "check</w>": 3162,
  "checked</w>": 5773,
  "checking</w>": 8809,
  "checks</w>": 14732,
  "ched": 28098,
  "ched</w>": 2815,
  "chee": 16098,
  "chee</w>": 20527,
  "cheek": 21185,
  "cheek</w>": 3579,
  "cheeks</w>": 4733,
  "cheer": 12769,
  "cheer</w>": 16995,
  "cheerful</w>": 20882,
  "cheers</w>": 24271,
  "cheese</w>": 8658,
  "chef</w>": 10811,
  "chel": 8493,
  "chel</w>": 22395,
  "chelsea</w>": 9206,
  "cheltenham</w>": 21784,
  "chem": 7574,
  "chemi": 26656,
  "chemical</w>": 3544,
  "chemicals</w>": 12186,
  "chemist</w>": 14038,
  "chemistry</w>": 5129,
  "chen": 6322,
  "chen</w>": 5135,
  "cheng": 16914,
  "cheng</w>": 13428,
  "chenko</w>": 19408,
  "chennai</w>": 13452,
  "chens</w>": 26349,
  "cheon</w>": 19760,
  "chequ": 26891,
  "cher": 3821,
  "cher</w>": 4131,
  "chero": 29214,
  "cherokee</w>": 15134,
  "cherry</w>": 8760,
  "chers</w>": 10548,
  "cheryl</w>": 24236,
  "ches": 15179,
  "ches</w>": 2533,
  "chesapeake</w>": 24065,
  "cheshire</w>": 15456,
  "chess</w>": 6902,
  "chest": 20234,
  "chest</w>": 1289,
  "chester": 28623,
  "chester</w>": 5894,
  "chesterfield</w>": 26878,
  "chestnut</w>": 19183,
  "chet</w>": 12557,
  "chev": 10434,
  "chev</w>": 23054,
  "chevro": 29747,
  "chevrolet</w>": 17714,
  "chew</w>": 21701,
  "chewed</w>": 18314,
  "chewing</w>": 18167,
  "chey": 28751,
  "cheyenne</w>": 20436,
  "chez</w>": 27887,
  "chi": 1072,
  "chi</w>": 2875,
  "chia</w>": 24370,
  "chiang</w>": 20831,
  "chic": 23023,
  "chicago</w>": 1601,
  "chick": 18361,
  "chick</w>": 16778,
  "chicken</w>": 7733,
  "chickens</w>": 24962,
  "chicks</w>": 23315,
  "chie</w>": 27947,
  "chief": 16006,
  "chief</w>": 1017,
  "chiefly</w>": 17393,
  "chiefs</w>": 8434,
  "chiev": 29903,
  "chil": 5885,
  "child": 11248,
  "child</w>": 955,
  "childhood</w>": 4552,
  "childish</w>": 27524,
  "children</w>": 403,
  "chile</w>": 6641,
  "chilean</w>": 12631,
  "chili</w>": 24620,
  "chill</w>": 10423,
  "chilled</w>": 26547,
  "chilly</w>": 27307,
  "chim": 25509,
  "chimney</w>": 19468,
  "chin": 7934,
  "chin</w>": 3386,
  "china</w>": 1088,
  "chinatown</w>": 26455,
  "chine": 27025,
  "chinese</w>": 1288,
  "ching</w>": 3367,
  "chio</w>": 22608,
  "chip": 18160,
  "chip</w>": 8908,
  "chips</w>": 12009,
  "chir": 18392,
  "chison</w>": 24893,
  "chit": 9246,
  "chita</w>": 28887,
  "chloe</w>": 8888,
  "chlor": 9821,
  "chlori": 28299,
  "chloride</w>": 18978,
  "chman</w>": 18002,
  "chmen</w>": 27508,
  "chment</w>": 29437,
  "cho": 2534,
  "cho</w>": 8394,
  "chocol": 27627,
  "chocolate</w>": 7831,
  "choice</w>": 1947,
  "choices</w>": 9532,
  "choir</w>": 6832,
  "choke</w>": 17881,
  "choked</w>": 12237,
  "choking</w>": 19787,
  "chol": 11146,
  "chom": 22852,
  "chon": 25375,
  "chon</w>": 24650,
  "chong": 25453,
  "choo": 28753,
  "choose</w>": 4286,
  "chooses</w>": 17458,
  "choosing</w>": 10455,
  "chop": 8401,
  "chor": 9442,
  "choral</w>": 17227,
  "chord</w>": 12246,
  "chords</w>": 19969,
  "chore": 29306,
  "choreo": 28104,
  "choreographed</w>": 26853,
  "choreographer</w>": 22511,
  "choreography</w>": 23112,
  "chorus</w>": 7848,
  "chose</w>": 3440,
  "chosen</w>": 2632,
  "chou": 25736,
  "chow": 19124,
  "chow</w>": 20363,
  "chri": 9499,
  "chris</w>": 2706,
  "christ": 10836,
  "christ</w>": 3578,
  "christchurch</w>": 18345,
  "christen": 24606,
  "christi": 16967,
  "christi</w>": 26527,
  "christian": 27814,
  "christian</w>": 1332,
  "christianity</w>": 7539,
  "christians</w>": 7529,
  "christie</w>": 14959,
  "christina</w>": 15253,
  "christine</w>": 13244,
  "christmas</w>": 2996,
  "christop": 17427,
  "christopher</w>": 5431,
  "chro": 7902,
  "chrome</w>": 14380,
  "chromo": 19280,
  "chromosome</w>": 18847,
  "chron": 12247,
  "chronic": 16450,
  "chronic</w>": 12554,
  "chronicle</w>": 9915,
  "chronicles</w>": 13625,
  "chronological</w>": 23379,
  "chry": 13587,
  "chrysler</w>": 19748,
  "chs</w>": 13231,
  "cht</w>": 13776,
  "chu": 4761,
  "chu</w>": 10722,
  "chuan</w>": 28290,
  "chuck": 26029,
  "chuck</w>": 8008,
  "chuckle</w>": 15924,
  "chuckled</w>": 7822,
  "chuckles</w>": 26559,
  "chuk</w>": 25748,
  "chum</w>": 25647,
  "chun": 12503,
  "chun</w>": 24944,
  "chung</w>": 20579,
  "chunk</w>": 22125,
  "chur": 10738,
  "church": 26631,
  "church</w>": 330,
  "churches</w>": 3854,
  "churchill</w>": 11665,
  "churchyard</w>": 22071,
  "chus</w>": 12212,
  "chy": 16677,
  "chy</w>": 6225,
  "ci": 1087,
  "ci</w>": 5766,
  "cia</w>": 4061,
  "cial</w>": 27456,
  "cian</w>": 8938,
  "cians</w>": 18057,
  "cic": 11354,
  "cic</w>": 23181,
  "cid</w>": 20991,
  "cidae</w>": 22639,
  "cide</w>": 27697,
  "cie</w>": 16988,
  "cies</w>": 13120,
  "cigar</w>": 22162,
  "cigare": 29845,
  "cigarette</w>": 9523,
  "cigarettes</w>": 16266,
  "cil": 26442,
  "cil</w>": 28408,
  "cili": 19012,
  "ciliation</w>": 29210,
  "cin": 5827,
  "cin</w>": 17153,
  "cincin": 29577,
  "cincinnati</w>": 7475,
  "cinder": 25032,
  "cindy</w>": 19224,
  "cinem": 26197,
  "cinema</w>": 5231,
  "cinemas</w>": 21200,
  "cinematic</w>": 23644,
  "cinemato": 28557,
  "cinematographer</w>": 24318,
  "cinematography</w>": 22501,
  "cing</w>": 11852,
  "cinnam": 29064,
  "cinnamon</w>": 26412,
  "cio</w>": 8359,
  "cion</w>": 15382,
  "cir": 9248,
  "circa</w>": 14622,
  "circle</w>": 2992,
  "circled</w>": 11899,
  "circles</w>": 7048,
  "circling</w>": 16560,
  "circu": 23963,
  "circuit</w>": 3761,
  "circuits</w>": 14905,
  "circul": 22042,
  "circular</w>": 7623,
  "circulated</w>": 18852,
  "circulating</w>": 25642,
  "circulation</w>": 8721,
  "circum": 8284,
  "circumstances</w>": 5217,
  "circus</w>": 10315,
  "cis": 11275,
  "cis</w>": 15286,
  "cism</w>": 18637,
  "cist</w>": 22586,
  "cists</w>": 21275,
  "cit": 8679,
  "citadel</w>": 16721,
  "citation</w>": 12626,
  "citations</w>": 20848,
  "cite</w>": 17880,
  "cited</w>": 5501,
  "cites</w>": 18321,
  "cities</w>": 1908,
  "citing</w>": 8331,
  "citiz": 29646,
  "citizen": 28885,
  "citizen</w>": 6459,
  "citizens</w>": 3102,
  "citizenship</w>": 8954,
  "citrus</w>": 23849,
  "city": 19269,
  "city-": 17402,
  "city</w>": 130,
  "ciu": 29168,
  "ciudad</w>": 27110,
  "cius</w>": 23518,
  "civi": 28906,
  "civic</w>": 8038,
  "civil</w>": 1173,
  "civili": 12081,
  "civilian</w>": 5996,
  "civilians</w>": 8812,
  "civilization</w>": 11249,
  "ck": 3732,
  "ck</w>": 2846,
  "cke": 11322,
  "cke</w>": 27187,
  "cked</w>": 19445,
  "cker</w>": 7580,
  "cket</w>": 27432,
  "ckets</w>": 20435,
  "ckey</w>": 27953,
  "cking</w>": 11504,
  "cks</w>": 8751,
  "cky</w>": 14145,
  "cl": 2478,
  "cl</w>": 12778,
  "cla": 3988,
  "cla</w>": 28979,
  "clad</w>": 12342,
  "clade</w>": 23525,
  "clai": 18768,
  "claim": 29669,
  "claim</w>": 2690,
  "claimed</w>": 1792,
  "claiming</w>": 5260,
  "claims</w>": 2839,
  "clair</w>": 17994,
  "claire</w>": 5308,
  "clam": 12861,
  "clamation</w>": 28305,
  "clamped</w>": 19979,
  "clan": 10719,
  "clan</w>": 5280,
  "clandest": 24696,
  "clans</w>": 17071,
  "clap": 17729,
  "clapped</w>": 19489,
  "clar": 6808,
  "clara</w>": 11010,
  "clare</w>": 11999,
  "clarence</w>": 14099,
  "clari": 13145,
  "clarified</w>": 22299,
  "clarinet</w>": 23052,
  "clarity</w>": 17051,
  "clark</w>": 4529,
  "clarke</w>": 8971,
  "clarkson</w>": 23468,
  "clary</w>": 12878,
  "clas": 15219,
  "clash</w>": 14023,
  "clashed</w>": 24849,
  "clashes</w>": 18985,
  "clasped</w>": 17159,
  "class": 20164,
  "class</w>": 771,
  "classed</w>": 27132,
  "classes</w>": 2716,
  "classi": 8746,
  "classic</w>": 3139,
  "classical</w>": 3244,
  "classics</w>": 11511,
  "classification</w>": 5600,
  "classified</w>": 4965,
  "classm": 27676,
  "classmates</w>": 22338,
  "classroom</w>": 9813,
  "classrooms</w>": 13184,
  "clau": 9725,
  "claude</w>": 9029,
  "claudia</w>": 16154,
  "claudio</w>": 27387,
  "claus</w>": 25624,
  "clause</w>": 11640,
  "clave</w>": 14802,
  "claw</w>": 11820,
  "clawed</w>": 24970,
  "claws</w>": 10262,
  "clay": 24977,
  "clay</w>": 4380,
  "clayton</w>": 13674,
  "cle": 2666,
  "cle</w>": 12761,
  "clean": 9950,
  "clean</w>": 3192,
  "cleaned</w>": 12179,
  "cleaner</w>": 23162,
  "cleaning</w>": 8958,
  "clear": 11754,
  "clear</w>": 1365,
  "clearance</w>": 16319,
  "cleared</w>": 4710,
  "clearing</w>": 7712,
  "clearly</w>": 2859,
  "cled</w>": 29970,
  "clement": 20105,
  "clement</w>": 12964,
  "clen": 16688,
  "clenched</w>": 7522,
  "clenching</w>": 25248,
  "cleop": 26365,
  "cler": 10581,
  "clerg": 28933,
  "clergy</w>": 11796,
  "clergyman</w>": 26701,
  "clerical</w>": 27100,
  "clerk</w>": 7599,
  "cles</w>": 12579,
  "cleveland</w>": 5381,
  "clever</w>": 12380,
  "cli": 4789,
  "clic": 18752,
  "click</w>": 12269,
  "clicked</w>": 14139,
  "clicking</w>": 24133,
  "client</w>": 7143,
  "clients</w>": 7098,
  "cliff</w>": 6647,
  "cliffe</w>": 12693,
  "clifford</w>": 17601,
  "cliffs</w>": 14003,
  "clifton</w>": 19583,
  "clim": 9805,
  "climate</w>": 3439,
  "climax</w>": 15680,
  "climb</w>": 6458,
  "climbed</w>": 5388,
  "climbing</w>": 7510,
  "climbs</w>": 20636,
  "clin": 8777,
  "cling</w>": 27573,
  "clinging</w>": 19332,
  "clinic</w>": 9247,
  "clinical</w>": 5952,
  "clinics</w>": 20005,
  "clint</w>": 19883,
  "clinton</w>": 6701,
  "clip</w>": 13605,
  "clipped</w>": 21192,
  "clips</w>": 16624,
  "clit</w>": 19225,
  "clive</w>": 18161,
  "clo": 3362,
  "cloak</w>": 11951,
  "clock": 27529,
  "clock</w>": 4785,
  "clocks</w>": 24260,
  "clockwise</w>": 23583,
  "clon": 26378,
  "clone</w>": 19970,
  "close": 19271,
  "close-": 22743,
  "close</w>": 573,
  "closed</w>": 841,
  "closely</w>": 3390,
  "closer</w>": 1804,
  "closes</w>": 14668,
  "closest</w>": 6654,
  "closet</w>": 8798,
  "closing</w>": 4058,
  "closure</w>": 7885,
  "cloth</w>": 7279,
  "clothed</w>": 27060,
  "clothes</w>": 2612,
  "clothing</w>": 4798,
  "clou": 10363,
  "cloud</w>": 5107,
  "clouds</w>": 7424,
  "clow": 27692,
  "clown</w>": 19208,
  "clu": 4786,
  "club": 28370,
  "club</w>": 295,
  "clubhouse</w>": 25488,
  "clubs</w>": 2428,
  "clue</w>": 9828,
  "clues</w>": 17135,
  "clum": 28430,
  "clumsy</w>": 26532,
  "clung</w>": 14766,
  "cluster</w>": 9264,
  "clusters</w>": 13743,
  "clut": 21402,
  "clutch</w>": 16826,
  "clutched</w>": 13669,
  "clutching</w>": 14581,
  "cly": 21514,
  "clyde</w>": 11871,
  "cm": 14420,
  "cm</w>": 4652,
  "cn": 13055,
  "cn</w>": 23985,
  "cnn</w>": 15025,
  "co": 436,
  "co-": 1422,
  "co-author</w>": 26596,
  "co-authored</w>": 18960,
  "co-founded</w>": 12184,
  "co-founder</w>": 11099,
  "co-operation</w>": 20785,
  "co-operative</w>": 20548,
  "co-produced</w>": 18877,
  "co-written</w>": 16558,
  "co-wrote</w>": 14674,
  "co.</w>": 13597,
  "co</w>": 1433,
  "coach</w>": 1055,
  "coached</w>": 7827,
  "coaches</w>": 6858,
  "coaching</w>": 6780,
  "coal": 18455,
  "coal</w>": 4283,
  "coali": 28560,
  "coalition</w>": 4976,
  "coarse</w>": 24584,
  "coast": 28208,
  "coast</w>": 1240,
  "coastal</w>": 4606,
  "coaster</w>": 17316,
  "coastline</w>": 16615,
  "coasts</w>": 22772,
  "coat</w>": 3689,
  "coated</w>": 15988,
  "coating</w>": 21004,
  "coats</w>": 13993,
  "cob": 18313,
  "cobal": 27055,
  "cobb</w>": 20943,
  "cobra</w>": 19749,
  "coc": 24395,
  "coca-": 30050,
  "coca-cola</w>": 23951,
  "cocaine</w>": 17820,
  "cocc": 23242,
  "coch": 13814,
  "cock": 9232,
  "cock</w>": 7454,
  "cocked</w>": 13238,
  "cockpit</w>": 15169,
  "cocktail</w>": 21559,
  "coco": 24471,
  "coco</w>": 23681,
  "cocoa</w>": 27243,
  "cocon": 28735,
  "coconut</w>": 18968,
  "cod</w>": 22025,
  "code</w>": 1985,
  "coded</w>": 25230,
  "codes</w>": 9002,
  "codex</w>": 18599,
  "codi": 21702,
  "codice</w>": 9559,
  "coding</w>": 18322,
  "cody</w>": 14587,
  "coe</w>": 16485,
  "coeffici": 30122,
  "coefficient</w>": 23030,
  "coefficients</w>": 25275,
  "coer": 19674,
  "coff": 11859,
  "coffee</w>": 2563,
  "coffin</w>": 14134,
  "cog": 23093,
  "cogni": 19460,
  "cognitive</w>": 11217,
  "cohe": 23821,
  "cohen</w>": 11088,
  "coher": 27758,
  "coherent</w>": 17667,
  "coil</w>": 18772,
  "coim": 27089,
  "coin</w>": 8489,
  "coinci": 13118,
  "coincide</w>": 21785,
  "coincided</w>": 20033,
  "coincidence</w>": 17788,
  "coined</w>": 13649,
  "coins</w>": 7003,
  "coke</w>": 15188,
  "col": 2223,
  "col.</w>": 16237,
  "col</w>": 16243,
  "cola</w>": 17399,
  "colby</w>": 20994,
  "colchester</w>": 22596,
  "cold": 20894,
  "cold</w>": 1392,
  "colder</w>": 23945,
  "coldly</w>": 27294,
  "cole</w>": 4470,
  "coleman</w>": 13673,
  "coli": 27843,
  "coli</w>": 19902,
  "colin</w>": 6608,
  "coliseum</w>": 21269,
  "coll": 9918,
  "collabor": 27675,
  "collaborate</w>": 23598,
  "collaborated</w>": 7869,
  "collaborating</w>": 22527,
  "collaboration</w>": 4900,
  "collaborations</w>": 19017,
  "collaborative</w>": 13069,
  "collaborator</w>": 20854,
  "collaborators</w>": 23733,
  "collap": 25758,
  "collapse</w>": 7045,
  "collapsed</w>": 6864,
  "collapsing</w>": 25507,
  "collar": 21122,
  "collar</w>": 8933,
  "colle": 13179,
  "colleague</w>": 11877,
  "colleagues</w>": 7918,
  "collec": 17544,
  "collect</w>": 7422,
  "collected</w>": 3808,
  "collecting</w>": 8977,
  "collection</w>": 1400,
  "collections</w>": 5437,
  "collective</w>": 6681,
  "collectively</w>": 13998,
  "collector</w>": 10524,
  "collectors</w>": 15386,
  "collects</w>": 24076,
  "college</w>": 322,
  "colleges</w>": 5657,
  "collegi": 28279,
  "collegiate</w>": 8752,
  "colli": 10871,
  "collided</w>": 19982,
  "collier</w>": 25529,
  "colliery</w>": 22216,
  "collin</w>": 26476,
  "colling": 29599,
  "collingwood</w>": 25041,
  "collins</w>": 6652,
  "collision</w>": 13433,
  "collo": 28351,
  "colloqui": 17738,
  "colm</w>": 29155,
  "colo": 13927,
  "colo</w>": 18709,
  "cologist</w>": 26720,
  "cologne</w>": 12102,
  "cology</w>": 24350,
  "colom": 26235,
  "colombia</w>": 7516,
  "colombian</w>": 14540,
  "colombo</w>": 19188,
  "colon": 11539,
  "colon</w>": 19614,
  "colonel</w>": 3449,
  "coloni": 13370,
  "colonial</w>": 3995,
  "colonies</w>": 7610,
  "colonists</w>": 16696,
  "colonization</w>": 21212,
  "colony</w>": 4574,
  "color": 16586,
  "color</w>": 1848,
  "colorado</w>": 4060,
  "colored</w>": 5715,
  "colorful</w>": 14782,
  "coloring</w>": 25538,
  "colors</w>": 4960,
  "colour": 18668,
  "colour</w>": 5076,
  "coloured</w>": 11271,
  "colours</w>": 8748,
  "cols</w>": 29893,
  "colspan</w>": 9325,
  "colt</w>": 8738,
  "colton</w>": 24066,
  "colts</w>": 15977,
  "colum": 10628,
  "columbia</w>": 2609,
  "columbus</w>": 9078,
  "column</w>": 5171,
  "columnist</w>": 14777,
  "columns</w>": 7051,
  "com": 1417,
  "com.</w>": 28135,
  "com</w>": 6369,
  "coma</w>": 14494,
  "comb": 12208,
  "comb</w>": 14004,
  "combat": 18935,
  "combat</w>": 3010,
  "combe</w>": 13336,
  "combin": 25083,
  "combination</w>": 3863,
  "combinations</w>": 16780,
  "combine</w>": 11582,
  "combined</w>": 2498,
  "combines</w>": 14482,
  "combining</w>": 11765,
  "combustion</w>": 18858,
  "come": 18110,
  "come</w>": 302,
  "comeback</w>": 13155,
  "comedian</w>": 11201,
  "comedic</w>": 24811,
  "comedies</w>": 24990,
  "comedy</w>": 2714,
  "comes</w>": 1518,
  "comet</w>": 18158,
  "comfor": 18914,
  "comfort</w>": 6339,
  "comfortable</w>": 5480,
  "comfortably</w>": 20349,
  "comforting</w>": 17063,
  "comic</w>": 3909,
  "comics</w>": 4751,
  "coming</w>": 847,
  "comm": 9946,
  "comman": 12294,
  "command</w>": 1370,
  "commandant</w>": 18265,
  "commanded</w>": 5253,
  "commander": 28161,
  "commander-in-chief</w>": 19039,
  "commander</w>": 2063,
  "commanders</w>": 11574,
  "commanding</w>": 7555,
  "commando</w>": 17827,
  "commands</w>": 11341,
  "commem": 27505,
  "commemor": 24939,
  "commemorate</w>": 14102,
  "commemorated</w>": 21250,
  "commemorating</w>": 23877,
  "commemorative</w>": 20746,
  "commen": 29036,
  "commence</w>": 26239,
  "commenced</w>": 7631,
  "commencement</w>": 25050,
  "commend": 23042,
  "commended</w>": 26370,
  "comment": 28576,
  "comment</w>": 6839,
  "commentaries</w>": 25413,
  "commentary</w>": 8764,
  "commentator</w>": 13721,
  "commentators</w>": 17120,
  "commented</w>": 5883,
  "commenting</w>": 16563,
  "comments</w>": 7238,
  "commer": 29406,
  "commerce</w>": 5628,
  "commerci": 22109,
  "commercial</w>": 1590,
  "commercially</w>": 10944,
  "commercials</w>": 13138,
  "commis": 19628,
  "commission": 29427,
  "commission</w>": 1502,
  "commissioned</w>": 3336,
  "commissioner</w>": 5172,
  "commissioners</w>": 12668,
  "commissioning</w>": 23869,
  "commissions</w>": 13733,
  "commit": 28128,
  "commit</w>": 11004,
  "commitment</w>": 7994,
  "commitments</w>": 19785,
  "committed</w>": 4212,
  "committee</w>": 1067,
  "committees</w>": 8864,
  "committing</w>": 18576,
  "commo": 28150,
  "commodi": 29692,
  "commodities</w>": 25806,
  "commodity</w>": 22600,
  "commodore</w>": 14646,
  "common": 14530,
  "common</w>": 820,
  "commonly</w>": 2489,
  "commons</w>": 7072,
  "commonwealth</w>": 4569,
  "commu": 11883,
  "commun": 16626,
  "communal</w>": 16020,
  "commune</w>": 4774,
  "communes</w>": 17061,
  "communi": 28111,
  "communic": 19203,
  "communicate</w>": 10652,
  "communicated</w>": 21380,
  "communicating</w>": 23705,
  "communication</w>": 3636,
  "communications</w>": 3643,
  "communion</w>": 17895,
  "communism</w>": 17106,
  "communist</w>": 3356,
  "communists</w>": 13378,
  "communities</w>": 2755,
  "community</w>": 559,
  "commuter</w>": 15699,
  "como": 28644,
  "como</w>": 23141,
  "comp": 4521,
  "compact</w>": 9023,
  "compan": 29507,
  "compani": 27791,
  "companies</w>": 1542,
  "companion</w>": 7062,
  "companions</w>": 12291,
  "company</w>": 235,
  "compar": 28516,
  "comparable</w>": 12191,
  "comparative</w>": 14710,
  "comparatively</w>": 22300,
  "compare</w>": 13801,
  "compared</w>": 2472,
  "compares</w>": 26688,
  "comparing</w>": 14244,
  "comparison</w>": 7156,
  "comparisons</w>": 20653,
  "compart": 27203,
  "compartment</w>": 16827,
  "compas": 30027,
  "compass</w>": 19194,
  "compassion</w>": 17085,
  "compati": 29521,
  "compatibility</w>": 22099,
  "compatible</w>": 10386,
  "compe": 27940,
  "compelled</w>": 16155,
  "compelling</w>": 18725,
  "compens": 22287,
  "compensate</w>": 21213,
  "compensation</w>": 9370,
  "compete</w>": 4201,
  "competed</w>": 2042,
  "competen": 27857,
  "competence</w>": 20816,
  "competent</w>": 15320,
  "competes</w>": 14788,
  "competi": 26218,
  "competing</w>": 5454,
  "competition</w>": 1190,
  "competitions</w>": 5313,
  "competitive</w>": 5762,
  "competitor</w>": 13099,
  "competitors</w>": 9515,
  "compil": 28312,
  "compilation</w>": 5732,
  "compilations</w>": 25928,
  "compiled</w>": 8026,
  "compiler</w>": 27217,
  "compiling</w>": 24033,
  "compla": 27893,
  "complain</w>": 19153,
  "complained</w>": 10471,
  "complaining</w>": 19324,
  "complaint</w>": 12374,
  "complaints</w>": 10822,
  "comple": 8590,
  "complement</w>": 14809,
  "complementary</w>": 24567,
  "complete</w>": 1379,
  "completed</w>": 1109,
  "completely</w>": 1509,
  "completing</w>": 6730,
  "completion</w>": 5469,
  "complex</w>": 1682,
  "complexes</w>": 16958,
  "complexity</w>": 12175,
  "compli": 22344,
  "compliance</w>": 13824,
  "complic": 19995,
  "complicated</w>": 7573,
  "complications</w>": 13122,
  "complim": 15332,
  "compliment</w>": 21224,
  "comply</w>": 15157,
  "compo": 25501,
  "compon": 29734,
  "component</w>": 6163,
  "components</w>": 5267,
  "compos": 29838,
  "compose</w>": 18621,
  "composed</w>": 1952,
  "composer</w>": 3832,
  "composers</w>": 9753,
  "composing</w>": 18165,
  "composite</w>": 13790,
  "composition</w>": 4623,
  "compositions</w>": 8372,
  "composure</w>": 26232,
  "compound</w>": 6488,
  "compounds</w>": 9994,
  "comprehen": 15551,
  "comprehend</w>": 25186,
  "comprehensive</w>": 7053,
  "compres": 23089,
  "compressed</w>": 18234,
  "compression</w>": 15522,
  "comprise</w>": 16529,
  "comprised</w>": 11433,
  "comprises</w>": 7890,
  "comprising</w>": 9345,
  "compromise</w>": 12216,
  "compromised</w>": 21776,
  "compton</w>": 22668,
  "compu": 9760,
  "compul": 19878,
  "compulsory</w>": 16255,
  "computational</w>": 17615,
  "computer": 25544,
  "computer-": 23780,
  "computer</w>": 1711,
  "computers</w>": 6760,
  "computing</w>": 10039,
  "comr": 28022,
  "comrades</w>": 22015,
  "comte</w>": 24353,
  "comune</w>": 23715,
  "con": 542,
  "con</w>": 6787,
  "conan</w>": 19976,
  "concac": 30118,
  "concacaf</w>": 27289,
  "conce": 12233,
  "conceal</w>": 22058,
  "concealed</w>": 14695,
  "conceded</w>": 17104,
  "concei": 19930,
  "conceived</w>": 9547,
  "concentr": 28028,
  "concentrate</w>": 9766,
  "concentrated</w>": 7418,
  "concentrating</w>": 18240,
  "concentration</w>": 5787,
  "concentrations</w>": 14970,
  "concep": 13860,
  "concept</w>": 2648,
  "conception</w>": 13072,
  "concepts</w>": 8230,
  "conceptual</w>": 19989,
  "concer": 13528,
  "concern</w>": 3733,
  "concerned</w>": 3508,
  "concerning</w>": 6540,
  "concerns</w>": 4806,
  "concert</w>": 2856,
  "concerto</w>": 15020,
  "concerts</w>": 5797,
  "conces": 30092,
  "concession</w>": 18000,
  "concessions</w>": 23158,
  "conclu": 21615,
  "conclude</w>": 18114,
  "concluded</w>": 4172,
  "concludes</w>": 15743,
  "concluding</w>": 17494,
  "conclusion</w>": 6142,
  "conclusions</w>": 16751,
  "concor": 18010,
  "concord</w>": 20418,
  "concrete</w>": 4388,
  "concu": 21438,
  "concurrent</w>": 18413,
  "concurrently</w>": 18646,
  "concussion</w>": 26108,
  "condem": 13509,
  "condemned</w>": 10198,
  "conden": 14890,
  "condi": 24674,
  "condition</w>": 3237,
  "conditional</w>": 17083,
  "conditioned</w>": 25121,
  "conditioning</w>": 15730,
  "conditions</w>": 2172,
  "condom</w>": 23050,
  "condomini": 27242,
  "conduc": 16473,
  "conduct</w>": 5369,
  "conducted</w>": 2588,
  "conducting</w>": 8850,
  "conductor</w>": 8491,
  "conductors</w>": 24888,
  "conducts</w>": 20588,
  "cone</w>": 10084,
  "cones</w>": 23340,
  "conf": 17169,
  "confeder": 18990,
  "confederacy</w>": 20319,
  "confederate</w>": 7423,
  "confederation</w>": 11436,
  "conference</w>": 1207,
  "conferences</w>": 8886,
  "conferred</w>": 17018,
  "confes": 20423,
  "confess</w>": 20747,
  "confessed</w>": 14771,
  "confesses</w>": 25203,
  "confession</w>": 13494,
  "confi": 10526,
  "confidence</w>": 6074,
  "confident</w>": 8968,
  "confidential</w>": 21797,
  "configur": 29424,
  "configuration</w>": 9749,
  "configurations</w>": 26171,
  "confin": 23967,
  "confined</w>": 12549,
  "confinement</w>": 24540,
  "confir": 29401,
  "confirm</w>": 12391,
  "confirmation</w>": 14713,
  "confirmed</w>": 2827,
  "confirming</w>": 21023,
  "confirms</w>": 26573,
  "confis": 27795,
  "confiscated</w>": 18607,
  "conflic": 27770,
  "conflict</w>": 3387,
  "conflicting</w>": 21553,
  "conflicts</w>": 9436,
  "conflu": 29392,
  "confluence</w>": 14755,
  "confron": 19110,
  "confront</w>": 14921,
  "confrontation</w>": 13577,
  "confronted</w>": 12972,
  "confronts</w>": 18414,
  "confu": 12530,
  "confused</w>": 4085,
  "confusing</w>": 18053,
  "confusion</w>": 5709,
  "congestion</w>": 22866,
  "conglomer": 28805,
  "conglomerate</w>": 25391,
  "congo</w>": 9456,
  "congrat": 20778,
  "congratulations</w>": 25620,
  "congre": 15529,
  "congregation</w>": 7032,
  "congregational</w>": 23758,
  "congregations</w>": 18510,
  "congress</w>": 1900,
  "congresses</w>": 27275,
  "congressional</w>": 7898,
  "congressman</w>": 14490,
  "coni": 19284,
  "coni</w>": 20568,
  "conj": 24335,
  "conjecture</w>": 26417,
  "conju": 18281,
  "conjunction</w>": 9386,
  "conn": 13024,
  "connec": 20478,
  "connect</w>": 6078,
  "connected</w>": 2465,
  "connectic": 29888,
  "connecticut</w>": 5163,
  "connecting</w>": 6127,
  "connection</w>": 2933,
  "connections</w>": 6434,
  "connectivity</w>": 24679,
  "connector</w>": 22361,
  "connects</w>": 7826,
  "connell</w>": 15500,
  "conner</w>": 19498,
  "connie</w>": 21051,
  "connolly</w>": 25963,
  "connor</w>": 7541,
  "conor</w>": 24272,
  "conqu": 19068,
  "conquer": 26018,
  "conquer</w>": 17795,
  "conquered</w>": 10943,
  "conquest</w>": 8671,
  "conrad</w>": 12178,
  "cons</w>": 24149,
  "consci": 28848,
  "conscience</w>": 14818,
  "conscious</w>": 8229,
  "consciously</w>": 17637,
  "consciousness</w>": 7447,
  "consec": 18207,
  "consecrated</w>": 12523,
  "consecu": 28518,
  "consecutive</w>": 4080,
  "consen": 28637,
  "consensus</w>": 10268,
  "consent</w>": 9518,
  "consequ": 24468,
  "consequence</w>": 9180,
  "consequences</w>": 8144,
  "consequently</w>": 8246,
  "conserv": 10255,
  "conservation</w>": 4668,
  "conservative</w>": 3179,
  "conservatives</w>": 11936,
  "conservatory</w>": 12196,
  "conserved</w>": 22536,
  "consi": 28350,
  "consider": 28354,
  "consider</w>": 3608,
  "considerable</w>": 4991,
  "considerably</w>": 9368,
  "consideration</w>": 9270,
  "considerations</w>": 20081,
  "considered</w>": 735,
  "considering</w>": 4944,
  "considers</w>": 10551,
  "consist": 28511,
  "consist</w>": 8127,
  "consisted</w>": 3547,
  "consistency</w>": 18475,
  "consistent</w>": 7787,
  "consistently</w>": 10578,
  "consisting</w>": 4202,
  "consists</w>": 2054,
  "consol": 18486,
  "console</w>": 10095,
  "consoles</w>": 25252,
  "consoli": 19689,
  "consolidated</w>": 10835,
  "consolidation</w>": 19807,
  "conson": 29263,
  "consonant</w>": 24309,
  "consonants</w>": 24461,
  "consor": 29032,
  "consort</w>": 15481,
  "consortium</w>": 13035,
  "conspic": 28721,
  "conspicuous</w>": 19231,
  "conspir": 15757,
  "conspiracy</w>": 9748,
  "constable</w>": 15443,
  "constan": 12321,
  "constance</w>": 18933,
  "constant</w>": 4291,
  "constantin": 28868,
  "constantine</w>": 14258,
  "constantinople</w>": 12297,
  "constantly</w>": 7227,
  "constell": 28640,
  "constellation</w>": 16695,
  "constitu": 10334,
  "constituencies</w>": 13193,
  "constituency</w>": 3892,
  "constituent</w>": 14441,
  "constitute</w>": 12639,
  "constituted</w>": 11138,
  "constitutes</w>": 19999,
  "constitution</w>": 3144,
  "constitutional</w>": 5687,
  "constra": 27590,
  "constraints</w>": 16361,
  "constric": 23311,
  "construc": 14042,
  "construct</w>": 8350,
  "constructed</w>": 2162,
  "constructing</w>": 15645,
  "construction</w>": 977,
  "constructions</w>": 20873,
  "constructive</w>": 27264,
  "consu": 25216,
  "consul": 10059,
  "consul</w>": 13507,
  "consulate</w>": 25587,
  "consult</w>": 26622,
  "consultant</w>": 8855,
  "consultants</w>": 26114,
  "consultation</w>": 18091,
  "consulted</w>": 18959,
  "consulting</w>": 10818,
  "consum": 16115,
  "consume</w>": 17852,
  "consumed</w>": 9874,
  "consumer</w>": 7020,
  "consumers</w>": 10568,
  "consuming</w>": 16208,
  "consumption</w>": 8084,
  "cont": 5146,
  "conta": 26219,
  "contact</w>": 2339,
  "contacted</w>": 11712,
  "contacts</w>": 10285,
  "contain</w>": 4125,
  "contained</w>": 3391,
  "container</w>": 12268,
  "containers</w>": 18156,
  "containing</w>": 3504,
  "contains</w>": 1710,
  "contam": 27512,
  "contaminated</w>": 21398,
  "contamination</w>": 21179,
  "conte": 27829,
  "contem": 27694,
  "contempl": 16265,
  "contemplated</w>": 26059,
  "contempor": 27308,
  "contemporaries</w>": 18116,
  "contemporary</w>": 2389,
  "contempt</w>": 18884,
  "conten": 16043,
  "contender</w>": 22173,
  "content</w>": 2639,
  "contention</w>": 21146,
  "contents</w>": 7927,
  "contest</w>": 3688,
  "contestant</w>": 13392,
  "contestants</w>": 11055,
  "contested</w>": 6091,
  "contests</w>": 16964,
  "contex": 27779,
  "context</w>": 5309,
  "contexts</w>": 20679,
  "conti": 29512,
  "contigu": 27430,
  "contin": 28399,
  "continent</w>": 8277,
  "continental</w>": 5693,
  "continents</w>": 19493,
  "conting": 25987,
  "contingent</w>": 16874,
  "continu": 12482,
  "continually</w>": 15694,
  "continuation</w>": 13406,
  "continue</w>": 1862,
  "continued</w>": 568,
  "continues</w>": 2624,
  "continuing</w>": 4501,
  "continuity</w>": 14092,
  "continuous</w>": 6380,
  "continuously</w>": 10920,
  "contr": 15237,
  "contra": 10953,
  "contrac": 13462,
  "contract</w>": 1416,
  "contracted</w>": 10656,
  "contracting</w>": 24359,
  "contraction</w>": 25481,
  "contractor</w>": 14680,
  "contractors</w>": 17782,
  "contracts</w>": 7742,
  "contradic": 14375,
  "contrary</w>": 10082,
  "contrast</w>": 4477,
  "contrasted</w>": 24700,
  "contrasting</w>": 25161,
  "contrasts</w>": 26871,
  "contribu": 29298,
  "contribute</w>": 8616,
  "contributed</w>": 3781,
  "contributes</w>": 18369,
  "contributing</w>": 7282,
  "contribution</w>": 6125,
  "contributions</w>": 4932,
  "contributor</w>": 13181,
  "contributors</w>": 18587,
  "contro": 28585,
  "control": 28540,
  "control</w>": 600,
  "controlled</w>": 3254,
  "controller</w>": 12381,
  "controllers</w>": 23691,
  "controlling</w>": 9545,
  "controls</w>": 7180,
  "controvers": 30108,
  "controversi": 20025,
  "controversial</w>": 5683,
  "controversy</w>": 5616,
  "conv": 16003,
  "conven": 23506,
  "convened</w>": 19779,
  "conveni": 26198,
  "convenience</w>": 14060,
  "convenient</w>": 12725,
  "convent</w>": 10931,
  "conventi": 28103,
  "convention</w>": 3303,
  "conventional</w>": 6060,
  "conventions</w>": 13038,
  "conver": 7166,
  "convergence</w>": 23166,
  "convers": 27652,
  "conversation</w>": 2989,
  "conversations</w>": 11838,
  "conversely</w>": 20812,
  "conversion</w>": 6951,
  "convert</w>": 10421,
  "converted</w>": 3638,
  "converting</w>": 17823,
  "converts</w>": 22777,
  "convex</w>": 21132,
  "convey": 17766,
  "convey</w>": 18418,
  "conveyed</w>": 24447,
  "convic": 26915,
  "convict</w>": 24114,
  "convicted</w>": 7405,
  "conviction</w>": 10770,
  "convictions</w>": 23412,
  "convinc": 28552,
  "convince</w>": 7082,
  "convinced</w>": 5075,
  "convinces</w>": 20596,
  "convincing</w>": 12892,
  "convoy</w>": 9129,
  "convoys</w>": 25819,
  "convul": 22016,
  "conway</w>": 17834,
  "coo": 6645,
  "cook": 16712,
  "cook</w>": 4858,
  "cooke</w>": 20366,
  "cooked</w>": 13216,
  "cookie</w>": 20680,
  "cookies</w>": 17933,
  "cooking</w>": 8036,
  "cool": 13809,
  "cool</w>": 3189,
  "cooled</w>": 15648,
  "cooler</w>": 15438,
  "cooling</w>": 12099,
  "coon</w>": 20573,
  "coop</w>": 24123,
  "cooper": 12460,
  "cooper</w>": 5681,
  "cooperate</w>": 19499,
  "cooperation</w>": 6211,
  "cooperative</w>": 10921,
  "coordin": 28929,
  "coordinate</w>": 14657,
  "coordinated</w>": 14567,
  "coordinates</w>": 11662,
  "coordinating</w>": 23094,
  "coordination</w>": 13946,
  "coordinator</w>": 11525,
  "cop": 3202,
  "cop</w>": 8379,
  "copa</w>": 12545,
  "cope</w>": 11641,
  "copen": 29732,
  "copenhagen</w>": 10093,
  "copi": 28533,
  "copied</w>": 16707,
  "copies</w>": 3349,
  "copper</w>": 6456,
  "cops</w>": 10083,
  "copy": 18692,
  "copy</w>": 5338,
  "copying</w>": 26889,
  "copyright</w>": 9255,
  "cor": 844,
  "cor</w>": 23946,
  "cora</w>": 18661,
  "coral</w>": 11629,
  "cord</w>": 11037,
  "cordo": 29444,
  "cordoba</w>": 22048,
  "core</w>": 2699,
  "corey</w>": 24018,
  "corin": 12756,
  "cork</w>": 8539,
  "corn": 8969,
  "corn</w>": 7730,
  "cornel": 23801,
  "cornelius</w>": 21392,
  "cornell</w>": 12006,
  "corner": 14872,
  "corner</w>": 1693,
  "corners</w>": 7907,
  "cornish</w>": 21201,
  "cornwall</w>": 10827,
  "coron": 14538,
  "corona</w>": 27176,
  "coronation</w>": 13570,
  "corp": 28833,
  "corp.</w>": 20217,
  "corp</w>": 20926,
  "corpor": 27710,
  "corporal</w>": 17828,
  "corporate</w>": 5141,
  "corporation</w>": 2327,
  "corporations</w>": 11822,
  "corps</w>": 2212,
  "corpse</w>": 11857,
  "corpses</w>": 19854,
  "corpus</w>": 15753,
  "correc": 18065,
  "correct</w>": 5103,
  "corrected</w>": 13768,
  "correction</w>": 21456,
  "correctional</w>": 23425,
  "corrections</w>": 24604,
  "correctly</w>": 11473,
  "correlated</w>": 26486,
  "correlation</w>": 18501,
  "correspon": 17259,
  "correspond</w>": 18962,
  "correspondence</w>": 11517,
  "correspondent</w>": 12213,
  "corresponding</w>": 7319,
  "corresponds</w>": 16326,
  "corrid": 30101,
  "corridor</w>": 6112,
  "corridors</w>": 19008,
  "corro": 15716,
  "corrup": 22470,
  "corrupt</w>": 14402,
  "corruption</w>": 7270,
  "cortex</w>": 20521,
  "cory</w>": 22518,
  "cos": 10561,
  "cos</w>": 10894,
  "cosme": 26063,
  "cosmic</w>": 17076,
  "cosmo": 12339,
  "cosmos</w>": 26002,
  "coss": 20951,
  "cost": 26303,
  "cost-": 25145,
  "cost</w>": 1829,
  "costa</w>": 6559,
  "costello</w>": 26700,
  "costing</w>": 24444,
  "costly</w>": 18635,
  "costs</w>": 4185,
  "costu": 29900,
  "costum": 28432,
  "costume</w>": 9681,
  "costumes</w>": 13425,
  "cot": 22339,
  "cot</w>": 12117,
  "cote</w>": 15593,
  "cott": 17826,
  "cott</w>": 14346,
  "cottage</w>": 8785,
  "cottages</w>": 21042,
  "cotton</w>": 5769,
  "cou": 5492,
  "couch</w>": 5203,
  "cougars</w>": 26044,
  "cough": 27700,
  "cough</w>": 21575,
  "coughed</w>": 19441,
  "coughing</w>": 23774,
  "coul": 10958,
  "could</w>": 101,
  "couldn</w>": 543,
  "coun": 8741,
  "counc": 29243,
  "council": 17131,
  "council</w>": 576,
  "councill": 30072,
  "councillor</w>": 12558,
  "councillors</w>": 13847,
  "councils</w>": 10711,
  "counsel": 20421,
  "counsel</w>": 9533,
  "counseling</w>": 20026,
  "counselor</w>": 19958,
  "count": 28504,
  "count</w>": 2858,
  "countdown</w>": 21568,
  "counted</w>": 8371,
  "counter": 5606,
  "counter-": 9346,
  "counter</w>": 4360,
  "countered</w>": 18473,
  "countering</w>": 26838,
  "counterpart</w>": 13853,
  "counterparts</w>": 15395,
  "countess</w>": 12900,
  "counties</w>": 4597,
  "counting</w>": 10544,
  "countless</w>": 15264,
  "countries</w>": 1234,
  "country": 25170,
  "country</w>": 508,
  "countryside</w>": 10763,
  "counts</w>": 8654,
  "county</w>": 257,
  "coup</w>": 8047,
  "coupe</w>": 18610,
  "couple</w>": 1425,
  "coupled</w>": 11385,
  "couples</w>": 4904,
  "coupling</w>": 22746,
  "cour": 4708,
  "courage</w>": 8275,
  "courier</w>": 22893,
  "course</w>": 689,
  "courses</w>": 4035,
  "court": 24823,
  "court</w>": 540,
  "courtes": 28827,
  "courtesy</w>": 15915,
  "courthouse</w>": 10557,
  "courtney</w>": 16195,
  "courtro": 29645,
  "courtroom</w>": 23514,
  "courts</w>": 4313,
  "courty": 28831,
  "courtyard</w>": 9871,
  "cous": 29524,
  "cousin</w>": 4482,
  "cousins</w>": 12819,
  "cove</w>": 12023,
  "coven": 28040,
  "covenant</w>": 18874,
  "covent": 29894,
  "coventry</w>": 15411,
  "cover": 12670,
  "cover</w>": 1368,
  "coverage</w>": 5345,
  "covered</w>": 1356,
  "covering</w>": 3814,
  "covers</w>": 2779,
  "covert</w>": 22874,
  "cow": 5029,
  "cow</w>": 11558,
  "coward</w>": 18813,
  "cowboy</w>": 13317,
  "cowboys</w>": 12093,
  "cows</w>": 19065,
  "cox": 22208,
  "cox</w>": 8488,
  "coy</w>": 28314,
  "coyo": 27555,
  "coyote</w>": 25064,
  "cp": 11019,
  "cp</w>": 11269,
  "cpu</w>": 21530,
  "cr": 2009,
  "cr</w>": 8937,
  "cra": 3129,
  "cra</w>": 26258,
  "crab</w>": 21685,
  "crack": 10042,
  "crack</w>": 8015,
  "cracked</w>": 9047,
  "cracking</w>": 16890,
  "cracks</w>": 16306,
  "crad": 21888,
  "cradle</w>": 21738,
  "cradled</w>": 26367,
  "craf": 19517,
  "craft": 24835,
  "craft</w>": 5357,
  "crafted</w>": 19701,
  "crafts</w>": 13459,
  "craig</w>": 6996,
  "cram": 25212,
  "crambi": 30082,
  "crambidae</w>": 23591,
  "cramped</w>": 25254,
  "cran": 6043,
  "crane</w>": 12563,
  "crap</w>": 9155,
  "crash</w>": 4905,
  "crashed</w>": 7780,
  "crashes</w>": 21835,
  "crashing</w>": 13202,
  "crater</w>": 10797,
  "crates</w>": 17547,
  "craven</w>": 25613,
  "craw": 15139,
  "crawford</w>": 11606,
  "crawl</w>": 14030,
  "crawled</w>": 12379,
  "crawling</w>": 17160,
  "crazy</w>": 3339,
  "cre": 1583,
  "cream</w>": 6393,
  "create</w>": 1716,
  "created</w>": 680,
  "creates</w>": 8792,
  "creating</w>": 3072,
  "creation</w>": 2872,
  "creations</w>": 23430,
  "creative</w>": 4589,
  "creativity</w>": 17023,
  "creator</w>": 8730,
  "creators</w>": 18925,
  "creature</w>": 5544,
  "creatures</w>": 6404,
  "cred": 20427,
  "credentials</w>": 25693,
  "credi": 29354,
  "credibility</w>": 24507,
  "credible</w>": 26966,
  "credit</w>": 3628,
  "credited</w>": 4519,
  "creditors</w>": 27224,
  "credits</w>": 5565,
  "creed</w>": 19531,
  "creek</w>": 1964,
  "creep": 27877,
  "creep</w>": 22414,
  "creeping</w>": 20152,
  "creepy</w>": 18682,
  "creole</w>": 25702,
  "crept</w>": 13292,
  "crescent</w>": 15348,
  "crest</w>": 10237,
  "cretac": 29901,
  "cretaceous</w>": 20359,
  "crete</w>": 20576,
  "crew": 22265,
  "crew</w>": 2061,
  "crews</w>": 10130,
  "cri": 3069,
  "cric": 26408,
  "cricke": 27497,
  "cricket</w>": 2912,
  "cricketer</w>": 8315,
  "cried</w>": 5078,
  "cries</w>": 13106,
  "crime</w>": 2757,
  "crimea</w>": 25365,
  "crimean</w>": 23855,
  "crimes</w>": 6206,
  "crimin": 18891,
  "criminal</w>": 3516,
  "criminals</w>": 12706,
  "crimson</w>": 11530,
  "cringed</w>": 24185,
  "crip": 20007,
  "crisis</w>": 4220,
  "crisp</w>": 17237,
  "crit": 26314,
  "criteri": 29258,
  "criteria</w>": 8960,
  "criterion</w>": 22375,
  "critic": 25004,
  "critic</w>": 5242,
  "critical</w>": 2625,
  "critically</w>": 10964,
  "critici": 23692,
  "criticised</w>": 10310,
  "criticism</w>": 5178,
  "criticisms</w>": 21693,
  "criticized</w>": 5143,
  "criticizing</w>": 23573,
  "critics</w>": 2845,
  "critique</w>": 19417,
  "cro": 2650,
  "croati": 29208,
  "croatia</w>": 7986,
  "croatian</w>": 7965,
  "crocodi": 17983,
  "croft</w>": 12153,
  "croix</w>": 25586,
  "crom": 24633,
  "cromwell</w>": 19528,
  "cron": 14614,
  "crook</w>": 22210,
  "crooked</w>": 17015,
  "crop</w>": 9601,
  "crops</w>": 7586,
  "cros": 14923,
  "crosby</w>": 17564,
  "cross": 8562,
  "cross-": 6490,
  "cross-country</w>": 19127,
  "cross</w>": 1456,
  "crossed</w>": 3042,
  "crosses</w>": 6928,
  "crossing</w>": 3849,
  "crossings</w>": 23626,
  "crossover</w>": 18405,
  "crossroads</w>": 19599,
  "crou": 23191,
  "crouch</w>": 25486,
  "crouched</w>": 14623,
  "crow": 9122,
  "crow</w>": 11749,
  "crowd</w>": 2740,
  "crowded</w>": 9687,
  "crowding</w>": 26958,
  "crowds</w>": 12868,
  "crowley</w>": 24607,
  "crown</w>": 3094,
  "crowned</w>": 10132,
  "crows</w>": 23616,
  "croydon</w>": 26036,
  "cru": 3680,
  "cruci": 10043,
  "crucial</w>": 10036,
  "crude</w>": 14405,
  "cruel": 28339,
  "cruel</w>": 10485,
  "cruelty</w>": 20643,
  "cruise</w>": 8947,
  "cruiser</w>": 11122,
  "cruisers</w>": 18232,
  "cruises</w>": 27356,
  "cruising</w>": 26184,
  "crum": 20788,
  "crumpled</w>": 21554,
  "crun": 18690,
  "crunch</w>": 26475,
  "crus": 28212,
  "crusad": 27742,
  "crusade</w>": 18684,
  "crusaders</w>": 21911,
  "crush</w>": 10522,
  "crushed</w>": 10320,
  "crushing</w>": 15214,
  "crust</w>": 21571,
  "cruz</w>": 8421,
  "cry": 16692,
  "cry</w>": 4088,
  "crying</w>": 5938,
  "cryp": 14303,
  "crypt</w>": 21406,
  "crypto": 16955,
  "cryst": 25345,
  "crystal</w>": 5335,
  "crystall": 29661,
  "crystalline</w>": 26477,
  "crystals</w>": 15360,
  "cs": 14169,
  "cs</w>": 3413,
  "ct": 20034,
  "ct</w>": 11583,
  "ction</w>": 16875,
  "ctu": 29058,
  "cu": 1026,
  "cu</w>": 11627,
  "cuba</w>": 7113,
  "cuban</w>": 9908,
  "cube</w>": 15594,
  "cubic</w>": 17640,
  "cubs</w>": 13881,
  "cuck": 27202,
  "cue</w>": 14821,
  "cues</w>": 25712,
  "cuff</w>": 26202,
  "cuffs</w>": 17888,
  "cuis": 28815,
  "cuisine</w>": 13572,
  "cul": 3542,
  "cular</w>": 14011,
  "culinary</w>": 24410,
  "cullen</w>": 23438,
  "culmin": 23260,
  "culminated</w>": 17909,
  "culminating</w>": 18111,
  "cult</w>": 7506,
  "cultiv": 12657,
  "cultivated</w>": 13369,
  "cultivation</w>": 13825,
  "cultural</w>": 1776,
  "culturally</w>": 23511,
  "culture</w>": 1533,
  "cultures</w>": 7990,
  "cum": 6134,
  "cum</w>": 13064,
  "cumberland</w>": 13198,
  "cumul": 29344,
  "cumulative</w>": 26691,
  "cun": 8763,
  "cunningham</w>": 15890,
  "cup": 15130,
  "cup</w>": 578,
  "cupped</w>": 13650,
  "cups</w>": 9693,
  "cur": 2485,
  "curated</w>": 23639,
  "curator</w>": 13664,
  "curb</w>": 14561,
  "cure</w>": 9396,
  "cured</w>": 17495,
  "curi": 16102,
  "curiosity</w>": 10388,
  "curious</w>": 7226,
  "curiously</w>": 17571,
  "curl</w>": 16354,
  "curled</w>": 7157,
  "curling</w>": 11361,
  "curls</w>": 15001,
  "curly</w>": 20756,
  "curran</w>": 22884,
  "curren": 24354,
  "currency</w>": 8072,
  "current</w>": 963,
  "currently</w>": 893,
  "currents</w>": 15762,
  "curricul": 29783,
  "curriculum</w>": 8623,
  "currie</w>": 25020,
  "curry</w>": 17612,
  "curse</w>": 7892,
  "cursed</w>": 10179,
  "curses</w>": 26909,
  "cursing</w>": 21542,
  "curt</w>": 24740,
  "curtain</w>": 11304,
  "curtains</w>": 15495,
  "curtis</w>": 10192,
  "curv": 27509,
  "curve</w>": 6677,
  "curved</w>": 8485,
  "curves</w>": 10279,
  "curving</w>": 23548,
  "cus</w>": 8959,
  "cushi": 14292,
  "custo": 25450,
  "custody</w>": 9664,
  "custom": 12404,
  "custom</w>": 7873,
  "customary</w>": 17432,
  "customer</w>": 7989,
  "customers</w>": 5276,
  "customs</w>": 7931,
  "cut": 10702,
  "cut-": 23983,
  "cut</w>": 1164,
  "cute</w>": 9684,
  "cuth": 26337,
  "cuts</w>": 6485,
  "cutt": 24496,
  "cutter</w>": 17201,
  "cutting</w>": 5258,
  "cw": 21551,
  "cw</w>": 12365,
  "cy": 2267,
  "cy</w>": 4271,
  "cyber": 11575,
  "cyber</w>": 23427,
  "cyc": 23448,
  "cycl": 24342,
  "cycle</w>": 4333,
  "cycles</w>": 13598,
  "cycli": 28732,
  "cyclic</w>": 25258,
  "cycling</w>": 9633,
  "cyclist</w>": 14454,
  "cyclists</w>": 21460,
  "cyclo": 13203,
  "cyclone</w>": 11413,
  "cyclones</w>": 25342,
  "cylin": 29205,
  "cylind": 29756,
  "cylinder</w>": 8060,
  "cylinders</w>": 21628,
  "cylindrical</w>": 21036,
  "cyn": 19260,
  "cynthia</w>": 20003,
  "cyp": 28586,
  "cypress</w>": 26707,
  "cypri": 27955,
  "cypriot</w>": 20955,
  "cyprus</w>": 10246,
  "cyril": 29679,
  "cyril</w>": 21251,
  "cyrillic</w>": 24778,
  "cyrus</w>": 18438,
  "cyto": 13944,
  "cz": 6875,
  "cz</w>": 21219,
  "czech</w>": 4938,
  "czecho": 29111,
  "czechoslovak</w>": 24479,
  "czechoslovakia</w>": 13969,
  "d": 212,
  "d-": 1083,
  "d-</w>": 20305,
  "d-out</w>": 21011,
  "d-up</w>": 14954,
  "d.": 6998,
  "d.</w>": 3381,
  "d.c.</w>": 5366,
  "d</w>": 342,
  "da": 1652,
  "da-": 25033,
  "da</w>": 619,
  "dab": 10045,
  "dable</w>": 23868,
  "dac": 8666,
  "dad": 13619,
  "dad</w>": 1715,
  "daddy</w>": 8206,
  "dade</w>": 22636,
  "dae</w>": 3080,
  "daemon</w>": 12361,
  "dag": 7462,
  "dag</w>": 22733,
  "dagger</w>": 10878,
  "daggers</w>": 26992,
  "dah": 18456,
  "dah</w>": 13941,
  "dahl</w>": 20187,
  "dai": 6941,
  "dai</w>": 10229,
  "daily</w>": 2071,
  "dain</w>": 21709,
  "dairy</w>": 12370,
  "daisy</w>": 10712,
  "dak": 11766,
  "dak</w>": 16413,
  "dakota</w>": 7229,
  "dal": 3388,
  "dal</w>": 4922,
  "dale</w>": 3090,
  "dall": 22362,
  "dall</w>": 22807,
  "dallas</w>": 4981,
  "dalmati": 26207,
  "dalton</w>": 13280,
  "daly</w>": 21680,
  "dam": 4027,
  "dam</w>": 3242,
  "damage</w>": 2433,
  "damaged</w>": 4281,
  "damages</w>": 13108,
  "damaging</w>": 16128,
  "damas": 29264,
  "damascus</w>": 17752,
  "dame</w>": 8698,
  "dami": 27954,
  "damian</w>": 24564,
  "damien</w>": 13343,
  "dammit</w>": 18811,
  "damn</w>": 2591,
  "damned</w>": 8387,
  "damon</w>": 11624,
  "damp": 26356,
  "damp</w>": 10158,
  "dams</w>": 15863,
  "dan": 2493,
  "dan</w>": 2790,
  "dana</w>": 10799,
  "danao</w>": 26464,
  "dance</w>": 1479,
  "danced</w>": 10901,
  "dancer</w>": 8177,
  "dancers</w>": 10577,
  "dances</w>": 10654,
  "dancing</w>": 4613,
  "dand": 21868,
  "dane</w>": 10144,
  "danes</w>": 26764,
  "danese</w>": 25872,
  "dang": 15765,
  "dang</w>": 22453,
  "danger": 28769,
  "danger</w>": 4300,
  "dangerous</w>": 3415,
  "dangerously</w>": 23206,
  "dangers</w>": 18726,
  "dangling</w>": 20323,
  "dani": 9193,
  "dani</w>": 16273,
  "daniel</w>": 2528,
  "danielle</w>": 23198,
  "daniels</w>": 14152,
  "danish</w>": 4903,
  "danny</w>": 5913,
  "dans</w>": 26717,
  "dant</w>": 19939,
  "dante</w>": 9151,
  "dants</w>": 24267,
  "danu": 28786,
  "danube</w>": 18366,
  "dao</w>": 23512,
  "daph": 29218,
  "daphne</w>": 19277,
  "dar": 1517,
  "dar</w>": 5756,
  "dara</w>": 21052,
  "darcy</w>": 20066,
  "dard</w>": 28988,
  "dare</w>": 6407,
  "dared</w>": 15818,
  "dari": 22824,
  "dari</w>": 26206,
  "daries</w>": 29640,
  "darin</w>": 28704,
  "daring</w>": 16369,
  "darius</w>": 16231,
  "dark": 9739,
  "dark-": 13469,
  "dark</w>": 751,
  "darkened</w>": 13821,
  "darker</w>": 9656,
  "darkest</w>": 27092,
  "darkness</w>": 3375,
  "darling</w>": 9479,
  "darlington</w>": 23592,
  "darren</w>": 13934,
  "dart": 28628,
  "dart</w>": 14637,
  "darted</w>": 14340,
  "dartmouth</w>": 19360,
  "darts</w>": 18716,
  "darwin</w>": 12465,
  "dary</w>": 28776,
  "das": 10854,
  "das</w>": 5730,
  "dash": 13549,
  "dash</w>": 11610,
  "dashed</w>": 19669,
  "dat": 7609,
  "dat</w>": 17674,
  "data</w>": 1302,
  "datab": 29563,
  "database</w>": 7913,
  "databases</w>": 21362,
  "date</w>": 1188,
  "dated</w>": 3342,
  "dates</w>": 3345,
  "dating</w>": 3369,
  "dation</w>": 10365,
  "dau": 9762,
  "daugh": 25882,
  "daughter</w>": 848,
  "daughters</w>": 4449,
  "daun": 21689,
  "dav": 6370,
  "dave</w>": 4568,
  "daven": 29391,
  "davenport</w>": 19786,
  "davey</w>": 26138,
  "davi": 12126,
  "david</w>": 902,
  "davidson</w>": 13745,
  "davies</w>": 9911,
  "davis</w>": 3510,
  "daw": 11247,
  "dawn</w>": 5786,
  "dawson</w>": 12068,
  "dax</w>": 27045,
  "day": 5947,
  "day-": 18432,
  "day-to-": 30053,
  "day-to-day</w>": 21854,
  "day</w>": 192,
  "daylight</w>": 12049,
  "days</w>": 481,
  "daytime</w>": 12838,
  "dayton</w>": 16909,
  "daytona</w>": 20997,
  "dazed</w>": 21317,
  "db</w>": 13614,
  "dc-": 23751,
  "dc</w>": 4570,
  "dd": 5733,
  "dd</w>": 5954,
  "dded</w>": 12192,
  "dden</w>": 16349,
  "dder</w>": 12307,
  "ddin</w>": 13831,
  "dding</w>": 8445,
  "ddle</w>": 12973,
  "ddled</w>": 20904,
  "ddler</w>": 21929,
  "ddling</w>": 24634,
  "ddy</w>": 10966,
  "de": 283,
  "de-": 4390,
  "de</w>": 180,
  "dea</w>": 13777,
  "deacon</w>": 16797,
  "dead": 8629,
  "dead</w>": 944,
  "deadline</w>": 16619,
  "deadly</w>": 9141,
  "deaf": 20577,
  "deaf</w>": 13628,
  "deal": 15035,
  "deal</w>": 1243,
  "dealer</w>": 11560,
  "dealers</w>": 18370,
  "dealing</w>": 6232,
  "deals</w>": 8695,
  "dealt</w>": 8910,
  "dean</w>": 2959,
  "dear": 24110,
  "dear</w>": 5155,
  "death": 12711,
  "death</w>": 386,
  "deaths</w>": 5679,
  "deau</w>": 18028,
  "deaux</w>": 29011,
  "deb": 10795,
  "debate</w>": 4940,
  "debated</w>": 16166,
  "debates</w>": 15458,
  "debating</w>": 23802,
  "debbie</w>": 19606,
  "debor": 29446,
  "deborah</w>": 20356,
  "debris</w>": 11515,
  "debt</w>": 6336,
  "debts</w>": 14804,
  "debu": 16224,
  "debut</w>": 959,
  "debuted</w>": 4698,
  "debuting</w>": 26995,
  "dec": 1940,
  "dec</w>": 16903,
  "decade</w>": 4228,
  "decades</w>": 3709,
  "decay</w>": 14135,
  "deceased</w>": 10862,
  "decei": 19740,
  "december</w>": 373,
  "decent</w>": 10390,
  "decep": 20038,
  "deception</w>": 20215,
  "deci": 8840,
  "decide</w>": 4381,
  "decided</w>": 895,
  "decides</w>": 6187,
  "deciding</w>": 10355,
  "deciduous</w>": 25149,
  "decim": 16698,
  "decision-": 29129,
  "decision-making</w>": 25438,
  "decision</w>": 1552,
  "decisions</w>": 5658,
  "decisive</w>": 12742,
  "deck</w>": 4507,
  "decker</w>": 22018,
  "decks</w>": 21642,
  "declan</w>": 17746,
  "declar": 27169,
  "declaration</w>": 7645,
  "declare</w>": 14751,
  "declared</w>": 2539,
  "declares</w>": 22043,
  "declaring</w>": 14315,
  "decline</w>": 5623,
  "declined</w>": 5281,
  "declining</w>": 14522,
  "deco": 21879,
  "deco</w>": 23721,
  "decom": 15228,
  "decommissioned</w>": 15238,
  "decomposition</w>": 26443,
  "decon": 26410,
  "decor": 13115,
  "decorated</w>": 6426,
  "decoration</w>": 12029,
  "decorations</w>": 15392,
  "decorative</w>": 11704,
  "decre": 17949,
  "decrease</w>": 9759,
  "decreased</w>": 10460,
  "decreases</w>": 20268,
  "decreasing</w>": 18588,
  "decree</w>": 9952,
  "ded</w>": 1642,
  "dedic": 23541,
  "dedicated</w>": 2496,
  "dedication</w>": 12758,
  "dedly</w>": 17252,
  "deduc": 20256,
  "dee": 27726,
  "dee</w>": 6999,
  "deed</w>": 16103,
  "deeds</w>": 16713,
  "deem": 26750,
  "deemed</w>": 7248,
  "deen</w>": 23477,
  "deep": 12287,
  "deep-": 19398,
  "deep</w>": 953,
  "deepened</w>": 21934,
  "deeper</w>": 5702,
  "deepest</w>": 19812,
  "deeply</w>": 5007,
  "deer</w>": 7884,
  "dees</w>": 28772,
  "def": 4558,
  "def</w>": 21049,
  "default</w>": 14108,
  "defe": 29318,
  "defeat</w>": 2488,
  "defeated</w>": 1520,
  "defeating</w>": 5065,
  "defeats</w>": 15853,
  "defect</w>": 25331,
  "defects</w>": 21480,
  "defen": 10667,
  "defence</w>": 3554,
  "defences</w>": 18277,
  "defend": 29753,
  "defend</w>": 5993,
  "defendant</w>": 15245,
  "defendants</w>": 18099,
  "defended</w>": 7031,
  "defender</w>": 7774,
  "defenders</w>": 12535,
  "defending</w>": 5925,
  "defense</w>": 2160,
  "defenses</w>": 13720,
  "defensive</w>": 4417,
  "defi": 19479,
  "defiance</w>": 22223,
  "defic": 28218,
  "deficiency</w>": 20372,
  "deficit</w>": 16337,
  "defin": 29088,
  "define</w>": 8951,
  "defined</w>": 2820,
  "defines</w>": 12205,
  "defini": 28297,
  "defining</w>": 13083,
  "definite</w>": 16774,
  "definitely</w>": 4442,
  "definition</w>": 5204,
  "definitions</w>": 17000,
  "definitive</w>": 17560,
  "defl": 11861,
  "defunc": 30034,
  "defunct</w>": 12083,
  "degrad": 27952,
  "degradation</w>": 18067,
  "degre": 28758,
  "degree</w>": 1231,
  "degrees</w>": 4274,
  "deh</w>": 22010,
  "dei</w>": 16655,
  "deities</w>": 18275,
  "deity</w>": 13315,
  "dek</w>": 20055,
  "del": 1617,
  "del</w>": 2004,
  "dela</w>": 22655,
  "delaney</w>": 27287,
  "delaware</w>": 8057,
  "delay</w>": 8161,
  "delayed</w>": 7692,
  "delays</w>": 15261,
  "dele": 16498,
  "deleg": 20968,
  "delegate</w>": 12394,
  "delegates</w>": 10212,
  "delegation</w>": 10457,
  "deleted</w>": 19804,
  "delhi</w>": 6491,
  "deli": 15211,
  "delia</w>": 22808,
  "deliber": 22245,
  "deliberate</w>": 16213,
  "deliberately</w>": 9591,
  "delic": 17322,
  "delicate</w>": 9685,
  "delicious</w>": 12204,
  "deligh": 23241,
  "delight</w>": 12709,
  "delighted</w>": 16950,
  "delilah</w>": 27053,
  "deliver": 28274,
  "deliver</w>": 7464,
  "delivered</w>": 4153,
  "deliveries</w>": 26602,
  "delivering</w>": 13270,
  "delivers</w>": 20345,
  "delivery</w>": 6226,
  "dell</w>": 7419,
  "della</w>": 8497,
  "delle</w>": 19520,
  "delta</w>": 6854,
  "delu": 14416,
  "deluxe</w>": 19044,
  "dem": 11281,
  "dem</w>": 16067,
  "deman": 28613,
  "demand</w>": 3839,
  "demanded</w>": 4358,
  "demanding</w>": 9103,
  "demands</w>": 6788,
  "demar": 26604,
  "deme": 29080,
  "demean": 28691,
  "demeanor</w>": 19370,
  "demetri": 25492,
  "demise</w>": 14112,
  "demo": 7158,
  "demo</w>": 11465,
  "democr": 27610,
  "democracy</w>": 6579,
  "democrat</w>": 7370,
  "democrati": 24914,
  "democratic</w>": 1922,
  "democrats</w>": 7412,
  "demographic</w>": 17321,
  "demoli": 28470,
  "demolished</w>": 6256,
  "demolition</w>": 12839,
  "demon": 15513,
  "demon</w>": 4650,
  "demonic</w>": 26562,
  "demons</w>": 7140,
  "demonstr": 21093,
  "demonstrate</w>": 10629,
  "demonstrated</w>": 6831,
  "demonstrates</w>": 18375,
  "demonstrating</w>": 14986,
  "demonstration</w>": 10602,
  "demonstrations</w>": 14223,
  "demos</w>": 19738,
  "den": 1439,
  "den-": 21437,
  "den</w>": 1367,
  "dena</w>": 23617,
  "denburg</w>": 24612,
  "dence</w>": 16487,
  "dened</w>": 17578,
  "deni": 13402,
  "denial</w>": 16715,
  "denied</w>": 5222,
  "denies</w>": 26872,
  "dening</w>": 24971,
  "denis</w>": 13458,
  "denise</w>": 18335,
  "denmark</w>": 5131,
  "dennis</w>": 7069,
  "denny</w>": 16758,
  "deno": 27728,
  "denom": 29077,
  "denomin": 23374,
  "denomination</w>": 19112,
  "denominations</w>": 18765,
  "denote</w>": 21956,
  "denoted</w>": 22111,
  "denotes</w>": 18555,
  "denounced</w>": 19273,
  "dens</w>": 10155,
  "dense</w>": 8601,
  "densely</w>": 21609,
  "density</w>": 2775,
  "dent": 11030,
  "dent</w>": 6855,
  "dental</w>": 8800,
  "dentally</w>": 20522,
  "denti": 11350,
  "dential</w>": 28597,
  "dently</w>": 22750,
  "dents</w>": 11955,
  "denver</w>": 7383,
  "deny</w>": 9402,
  "denying</w>": 17307,
  "deo</w>": 25549,
  "deon</w>": 27648,
  "dep": 14080,
  "depar": 27929,
  "depart": 18443,
  "depart</w>": 20531,
  "departed</w>": 6824,
  "departing</w>": 17180,
  "department</w>": 716,
  "departments</w>": 6973,
  "departure</w>": 5638,
  "depen": 27653,
  "depend</w>": 13171,
  "depended</w>": 18611,
  "dependen": 19471,
  "dependence</w>": 19626,
  "dependent</w>": 7021,
  "depending</w>": 4707,
  "depends</w>": 8577,
  "depic": 30007,
  "depict</w>": 18616,
  "depicted</w>": 7589,
  "depicting</w>": 10821,
  "depiction</w>": 17264,
  "depictions</w>": 22872,
  "depicts</w>": 11490,
  "deple": 27657,
  "depleted</w>": 25400,
  "deploy": 27908,
  "deploy</w>": 23645,
  "deployed</w>": 6400,
  "deployment</w>": 10880,
  "depor": 18433,
  "deportation</w>": 27173,
  "deported</w>": 19597,
  "depos": 30067,
  "deposed</w>": 20409,
  "deposit</w>": 13611,
  "deposited</w>": 14831,
  "deposition</w>": 22366,
  "deposits</w>": 9844,
  "depot</w>": 8137,
  "depres": 15482,
  "depressed</w>": 15721,
  "depression</w>": 5175,
  "depri": 28026,
  "deprived</w>": 19941,
  "depth</w>": 4994,
  "depths</w>": 11189,
  "depu": 27026,
  "deputies</w>": 12129,
  "deputy</w>": 2847,
  "der": 1159,
  "der-": 11680,
  "der</w>": 1001,
  "dera</w>": 16137,
  "derby": 29987,
  "derby</w>": 6570,
  "derbyshire</w>": 16917,
  "dered</w>": 6304,
  "derek</w>": 6828,
  "deri": 13228,
  "derick</w>": 24308,
  "dering</w>": 8232,
  "deriv": 26110,
  "derivative</w>": 14761,
  "derivatives</w>": 19413,
  "derive</w>": 20592,
  "derived</w>": 3686,
  "derives</w>": 12039,
  "derly</w>": 27413,
  "dermo": 20503,
  "derness</w>": 25398,
  "derrick</w>": 23843,
  "derry</w>": 16039,
  "ders</w>": 2541,
  "derson</w>": 24907,
  "dery</w>": 21418,
  "des": 6138,
  "des-": 28005,
  "des</w>": 1307,
  "desc": 19678,
  "descen": 28481,
  "descend": 28690,
  "descend</w>": 20734,
  "descendant</w>": 13100,
  "descendants</w>": 7815,
  "descended</w>": 8674,
  "descending</w>": 14357,
  "descends</w>": 26500,
  "descent</w>": 5511,
  "descri": 27905,
  "describe</w>": 5092,
  "described</w>": 750,
  "describes</w>": 4368,
  "describing</w>": 7046,
  "descrip": 20724,
  "description</w>": 5618,
  "descriptions</w>": 14197,
  "deser": 13935,
  "desert</w>": 4525,
  "deserted</w>": 12988,
  "deserve</w>": 9740,
  "deserved</w>": 10407,
  "deserves</w>": 18750,
  "desh</w>": 28406,
  "deshi</w>": 25480,
  "desi": 11566,
  "desig": 22512,
  "design": 16844,
  "design</w>": 831,
  "designated</w>": 3021,
  "designation</w>": 7459,
  "designed</w>": 1047,
  "designer</w>": 5215,
  "designers</w>": 11486,
  "designing</w>": 13017,
  "designs</w>": 4407,
  "desirable</w>": 14032,
  "desire</w>": 3426,
  "desired</w>": 8557,
  "desires</w>": 16300,
  "desk": 28717,
  "desk</w>": 3039,
  "desktop</w>": 17779,
  "desmond</w>": 19881,
  "desol": 26139,
  "desp": 9447,
  "despair</w>": 14824,
  "desper": 28956,
  "desperate</w>": 6108,
  "desperately</w>": 9063,
  "desperation</w>": 16520,
  "despite</w>": 861,
  "dessert</w>": 20230,
  "dest": 16505,
  "dest</w>": 10973,
  "destination</w>": 6935,
  "destinations</w>": 14559,
  "destined</w>": 16899,
  "destiny</w>": 11207,
  "destri": 29855,
  "destro": 29940,
  "destroy": 29764,
  "destroy</w>": 4918,
  "destroyed</w>": 2276,
  "destroyer</w>": 10094,
  "destroyers</w>": 14358,
  "destroying</w>": 9480,
  "destroys</w>": 24016,
  "destruc": 27869,
  "destruction</w>": 5236,
  "destructive</w>": 17091,
  "det": 12500,
  "det</w>": 13766,
  "deta": 21208,
  "detached</w>": 12879,
  "detachment</w>": 12932,
  "detail</w>": 6032,
  "detailed</w>": 5918,
  "detailing</w>": 19159,
  "details</w>": 3312,
  "detained</w>": 15621,
  "detec": 13003,
  "detect</w>": 11790,
  "detected</w>": 10199,
  "detection</w>": 11577,
  "detective</w>": 5990,
  "detectives</w>": 20297,
  "detector</w>": 21737,
  "detention</w>": 12877,
  "deter": 17777,
  "deteri": 27740,
  "deterior": 21441,
  "deteriorated</w>": 21945,
  "determin": 15536,
  "determination</w>": 8907,
  "determine</w>": 4520,
  "determined</w>": 2682,
  "determines</w>": 18651,
  "determining</w>": 13266,
  "deton": 14164,
  "detri": 24327,
  "detro": 29448,
  "detroit</w>": 4799,
  "dette</w>": 26456,
  "deu": 13060,
  "deus</w>": 23618,
  "deut": 29513,
  "deutsch": 16582,
  "deutsche</w>": 13215,
  "dev": 3876,
  "dev</w>": 11817,
  "deva": 23630,
  "deva</w>": 25193,
  "devast": 29794,
  "devastated</w>": 14138,
  "devastating</w>": 15778,
  "devel": 29693,
  "develop": 28806,
  "develop</w>": 3011,
  "developed</w>": 869,
  "developer</w>": 9722,
  "developers</w>": 9484,
  "developing</w>": 3640,
  "development</w>": 572,
  "developmental</w>": 15252,
  "developments</w>": 8522,
  "develops</w>": 12341,
  "devi": 8832,
  "devi</w>": 15366,
  "device</w>": 3890,
  "devices</w>": 4778,
  "devil": 28194,
  "devil</w>": 6017,
  "deville</w>": 28160,
  "devils</w>": 13606,
  "devised</w>": 15948,
  "devo": 17251,
  "devoid</w>": 25741,
  "devol": 26479,
  "devon": 24585,
  "devon</w>": 7057,
  "devote</w>": 26440,
  "devoted</w>": 6606,
  "devotees</w>": 25988,
  "devotion</w>": 14957,
  "dew</w>": 21494,
  "dewey</w>": 24366,
  "dex": 22295,
  "dex</w>": 13937,
  "dexter</w>": 15432,
  "dey</w>": 22551,
  "dez</w>": 17206,
  "df": 18444,
  "df</w>": 11875,
  "dg": 9211,
  "dge": 10565,
  "dge</w>": 3963,
  "dged</w>": 10228,
  "dges</w>": 8972,
  "dging</w>": 16415,
  "dh": 8032,
  "dh</w>": 18979,
  "dha": 14952,
  "dhaka</w>": 19440,
  "dham": 27464,
  "dham</w>": 21519,
  "dhan": 24505,
  "dhar": 12378,
  "dharma</w>": 24987,
  "dheim</w>": 22577,
  "dhi</w>": 24979,
  "dho": 26247,
  "di": 324,
  "di</w>": 1293,
  "dia": 27601,
  "dia</w>": 3769,
  "diabetes</w>": 16791,
  "diag": 14162,
  "diagno": 27420,
  "diagnosed</w>": 10831,
  "diagnosis</w>": 11943,
  "diagnostic</w>": 18795,
  "diagonal</w>": 22819,
  "diagram</w>": 18806,
  "dial": 24898,
  "dial</w>": 9535,
  "dialect</w>": 9243,
  "dialects</w>": 12851,
  "dialed</w>": 23194,
  "dialo": 25515,
  "dialogue</w>": 7955,
  "diam": 26287,
  "diameter</w>": 6045,
  "diamon": 24866,
  "diamond</w>": 5904,
  "diamonds</w>": 12640,
  "dian": 25640,
  "dian</w>": 5549,
  "diana</w>": 9123,
  "diane</w>": 13781,
  "dians</w>": 15686,
  "diar": 21196,
  "diaries</w>": 21942,
  "diary</w>": 9295,
  "dias": 29222,
  "diaspora</w>": 20763,
  "diaz</w>": 15201,
  "dic": 5406,
  "dic</w>": 5644,
  "dical</w>": 28232,
  "dically</w>": 15643,
  "dicals</w>": 30110,
  "dice</w>": 14422,
  "dick": 12494,
  "dick</w>": 4990,
  "dickens</w>": 23880,
  "dickinson</w>": 21425,
  "dics</w>": 26910,
  "dict": 26227,
  "dict</w>": 13959,
  "dictat": 28676,
  "dictated</w>": 26916,
  "dictator</w>": 25179,
  "dictatorship</w>": 21355,
  "diction</w>": 20340,
  "dictionary</w>": 10517,
  "did</w>": 125,
  "didn</w>": 160,
  "die": 8612,
  "die</w>": 1340,
  "died</w>": 401,
  "diego</w>": 4249,
  "dier</w>": 13051,
  "dies": 24501,
  "dies</w>": 4809,
  "diesel</w>": 7711,
  "diet</w>": 8283,
  "dietary</w>": 27036,
  "diff": 12610,
  "differ": 28272,
  "differ</w>": 11135,
  "differed</w>": 21439,
  "difference</w>": 3567,
  "differences</w>": 4837,
  "different</w>": 421,
  "differenti": 26064,
  "differential</w>": 12880,
  "differentiate</w>": 23526,
  "differentiated</w>": 25517,
  "differentiation</w>": 23861,
  "differently</w>": 11695,
  "differing</w>": 18453,
  "differs</w>": 13252,
  "diffic": 29342,
  "difficult</w>": 2006,
  "difficulties</w>": 7469,
  "difficulty</w>": 6938,
  "diffusion</w>": 21449,
  "dig": 6446,
  "dig</w>": 9859,
  "diges": 26416,
  "digest</w>": 22342,
  "digging</w>": 10175,
  "digi": 19805,
  "digit": 28467,
  "digit</w>": 17359,
  "digital</w>": 2193,
  "digitally</w>": 20678,
  "digits</w>": 19230,
  "dignity</w>": 14550,
  "dil": 10757,
  "dil</w>": 22044,
  "dilemma</w>": 26193,
  "dili": 21809,
  "dill": 13023,
  "dillon</w>": 17212,
  "dilu": 21337,
  "dily</w>": 26763,
  "dim": 13715,
  "dim</w>": 9999,
  "dimen": 28336,
  "dimension</w>": 10090,
  "dimensional</w>": 9943,
  "dimensions</w>": 9839,
  "dimin": 19169,
  "diminished</w>": 16782,
  "dimit": 21786,
  "dimitri</w>": 17876,
  "din": 3569,
  "din</w>": 4427,
  "dina</w>": 22412,
  "dinal</w>": 29199,
  "dinamo</w>": 27020,
  "dine</w>": 8500,
  "diner</w>": 17167,
  "ding": 13603,
  "ding</w>": 1690,
  "dingly</w>": 28415,
  "dings</w>": 13200,
  "dington</w>": 17536,
  "dini</w>": 20389,
  "dining</w>": 7047,
  "dinner</w>": 3067,
  "dino</w>": 21139,
  "dinosaur</w>": 18459,
  "dinosaurs</w>": 20859,
  "dio": 14370,
  "dio</w>": 11865,
  "dioc": 27999,
  "dioces": 27405,
  "diocesan</w>": 19944,
  "diocese</w>": 4854,
  "dion</w>": 10217,
  "diony": 25574,
  "dious</w>": 21916,
  "dioxide</w>": 15782,
  "dip</w>": 16634,
  "dipl": 29021,
  "diplom": 16522,
  "diploma</w>": 10420,
  "diplomacy</w>": 20487,
  "diplomat</w>": 12030,
  "diplomatic</w>": 7262,
  "dipped</w>": 13791,
  "dipping</w>": 26140,
  "dir": 14393,
  "dir</w>": 14146,
  "dire</w>": 21151,
  "direc": 10861,
  "direct</w>": 2005,
  "directed</w>": 1114,
  "directing</w>": 9457,
  "direction</w>": 1573,
  "directional</w>": 19196,
  "directions</w>": 7241,
  "directive</w>": 18629,
  "directly</w>": 1761,
  "director": 19795,
  "director</w>": 688,
  "directorate</w>": 17652,
  "directorial</w>": 24164,
  "directors</w>": 4398,
  "directory</w>": 16742,
  "directs</w>": 25255,
  "dirk</w>": 21884,
  "dirt</w>": 6021,
  "dirty</w>": 5812,
  "dis": 842,
  "dis</w>": 6120,
  "disa": 27987,
  "disab": 28746,
  "disabilities</w>": 15036,
  "disability</w>": 13043,
  "disabled</w>": 9949,
  "disadvantage</w>": 23375,
  "disagree</w>": 23319,
  "disagreed</w>": 19696,
  "disagreement</w>": 19813,
  "disagreements</w>": 25822,
  "disambigu": 29852,
  "disambiguation</w>": 7380,
  "disappear</w>": 10232,
  "disappearance</w>": 13914,
  "disappeared</w>": 4043,
  "disappearing</w>": 15299,
  "disappears</w>": 18680,
  "disappointed</w>": 8703,
  "disappointing</w>": 16192,
  "disappointment</w>": 10101,
  "disapproval</w>": 23763,
  "disaster</w>": 6357,
  "disasters</w>": 21429,
  "disastrous</w>": 17999,
  "disbanded</w>": 8055,
  "disbelief</w>": 12566,
  "disc": 5824,
  "disc</w>": 5052,
  "discar": 29018,
  "discarded</w>": 16258,
  "dischar": 26501,
  "discharge</w>": 12476,
  "discharged</w>": 15280,
  "disci": 29431,
  "discipl": 23416,
  "disciple</w>": 21032,
  "disciples</w>": 19825,
  "disciplinary</w>": 16045,
  "discipline</w>": 8647,
  "disciplines</w>": 13028,
  "disclo": 28811,
  "disclosed</w>": 24298,
  "disclosure</w>": 22324,
  "disco": 27506,
  "disco</w>": 14985,
  "discography</w>": 18998,
  "discomfort</w>": 19690,
  "disconnected</w>": 26885,
  "discontinued</w>": 8766,
  "discoun": 23402,
  "discount</w>": 22340,
  "discour": 17904,
  "discouraged</w>": 25494,
  "discourse</w>": 17770,
  "discover": 28088,
  "discover</w>": 6588,
  "discovered</w>": 1796,
  "discoveries</w>": 17708,
  "discovering</w>": 14025,
  "discovers</w>": 8740,
  "discovery</w>": 4354,
  "discre": 10251,
  "discrete</w>": 19581,
  "discretion</w>": 22190,
  "discrimin": 17242,
  "discrimination</w>": 8828,
  "discs</w>": 16930,
  "discu": 29824,
  "discus": 30039,
  "discuss</w>": 5802,
  "discussed</w>": 5908,
  "discusses</w>": 17727,
  "discussing</w>": 10335,
  "discussion</w>": 5710,
  "discussions</w>": 10117,
  "dise": 21426,
  "disease</w>": 2920,
  "diseases</w>": 7441,
  "disem": 22895,
  "disgu": 27619,
  "disguise</w>": 15540,
  "disguised</w>": 18163,
  "disgust</w>": 12813,
  "disgusted</w>": 18952,
  "disgusting</w>": 20974,
  "dish": 15949,
  "dish-": 23546,
  "dish</w>": 6786,
  "dishes</w>": 10167,
  "dishon": 23461,
  "disin": 27083,
  "disintegr": 18393,
  "disk</w>": 9799,
  "dislike</w>": 20781,
  "disliked</w>": 20604,
  "dism": 21949,
  "dism</w>": 25495,
  "disman": 28416,
  "dismantled</w>": 19082,
  "dismay</w>": 21944,
  "dismis": 14417,
  "dismiss</w>": 21931,
  "dismissal</w>": 16564,
  "dismissed</w>": 6161,
  "dismoun": 25788,
  "disney</w>": 5615,
  "diso": 28852,
  "disobe": 22924,
  "dison</w>": 28471,
  "disorder</w>": 8628,
  "disorders</w>": 11443,
  "disp": 7903,
  "dispar": 24894,
  "dispat": 23252,
  "dispatch</w>": 20876,
  "dispatched</w>": 15233,
  "dispen": 24750,
  "disper": 12703,
  "dispersed</w>": 16587,
  "displa": 29950,
  "displac": 27924,
  "displaced</w>": 13384,
  "displacement</w>": 15112,
  "display</w>": 3319,
  "displayed</w>": 6058,
  "displaying</w>": 16207,
  "displays</w>": 8400,
  "dispos": 27663,
  "disposal</w>": 14174,
  "disposed</w>": 22028,
  "disposition</w>": 23706,
  "dispu": 28937,
  "dispute</w>": 6790,
  "disputed</w>": 10298,
  "disputes</w>": 12170,
  "disqualified</w>": 21589,
  "disrup": 18812,
  "disrupt</w>": 26516,
  "disrupted</w>": 22385,
  "disruption</w>": 23215,
  "dissemin": 17957,
  "dissent": 27458,
  "disser": 29119,
  "dissertation</w>": 16510,
  "dissid": 23296,
  "dissip": 23482,
  "dissipated</w>": 25139,
  "dissolution</w>": 12461,
  "dissolve</w>": 24991,
  "dissolved</w>": 7590,
  "dist": 6087,
  "dist</w>": 19863,
  "distance</w>": 1675,
  "distances</w>": 12445,
  "distant</w>": 5816,
  "disti": 16138,
  "distinc": 20860,
  "distinct</w>": 4230,
  "distinction</w>": 7164,
  "distinctive</w>": 7352,
  "distinctly</w>": 21140,
  "distingu": 27661,
  "distinguish</w>": 10693,
  "distinguishable</w>": 26714,
  "distinguished</w>": 4121,
  "distinguishing</w>": 23168,
  "distor": 28082,
  "distorted</w>": 21240,
  "distortion</w>": 24817,
  "distr": 16014,
  "distract</w>": 16767,
  "distracted</w>": 10825,
  "distraction</w>": 15674,
  "distrau": 27427,
  "distre": 22952,
  "distress</w>": 13561,
  "distribu": 23889,
  "distribute</w>": 16810,
  "distributed</w>": 4219,
  "distributing</w>": 22049,
  "distribution</w>": 2828,
  "distributions</w>": 24039,
  "distributor</w>": 19423,
  "distributors</w>": 26071,
  "distric": 27114,
  "district</w>": 249,
  "districts</w>": 2995,
  "distur": 24733,
  "disturb": 29430,
  "disturb</w>": 26199,
  "disturbance</w>": 18724,
  "disturbed</w>": 11148,
  "disturbing</w>": 15869,
  "disu": 22604,
  "dit": 9824,
  "dit</w>": 11251,
  "ditch</w>": 13514,
  "dition</w>": 28152,
  "ditional</w>": 30061,
  "ditionally</w>": 28794,
  "ditions</w>": 28842,
  "dity</w>": 9394,
  "dium</w>": 8755,
  "diums</w>": 24688,
  "dius</w>": 16733,
  "div": 19313,
  "div</w>": 17087,
  "dive</w>": 11421,
  "diver": 8939,
  "diver</w>": 21113,
  "divers</w>": 20972,
  "diverse</w>": 6689,
  "diversi": 16800,
  "diversion</w>": 22714,
  "diversity</w>": 8715,
  "diverted</w>": 20260,
  "dives</w>": 20194,
  "divi": 9682,
  "divide</w>": 11701,
  "divided</w>": 2311,
  "divides</w>": 22918,
  "dividing</w>": 17192,
  "divin": 27064,
  "divine</w>": 7532,
  "diving</w>": 9121,
  "divinity</w>": 19338,
  "division</w>": 520,
  "divisional</w>": 16426,
  "divisions</w>": 4712,
  "divor": 27965,
  "divorce</w>": 7458,
  "divorced</w>": 8833,
  "dixie</w>": 23614,
  "dixon</w>": 12740,
  "diz</w>": 26326,
  "dizz": 23743,
  "dizzy</w>": 16509,
  "dj": 14691,
  "dj</w>": 6420,
  "djs</w>": 26975,
  "dl</w>": 14582,
  "dle": 24154,
  "dle</w>": 6194,
  "dled</w>": 9955,
  "dler</w>": 24411,
  "dles</w>": 12667,
  "dless</w>": 16151,
  "dley</w>": 14908,
  "dling</w>": 11993,
  "dly</w>": 4265,
  "dm</w>": 19675,
  "dman</w>": 12965,
  "dment</w>": 28798,
  "dmit": 24855,
  "dmitry</w>": 27182,
  "dn": 11462,
  "dn</w>": 17676,
  "dna</w>": 4581,
  "dner</w>": 28324,
  "dness</w>": 7737,
  "dney</w>": 28964,
  "dni": 26492,
  "dnt</w>": 19761,
  "do": 684,
  "do-": 17175,
  "do</w>": 99,
  "dob": 25217,
  "doc": 7879,
  "doc</w>": 9041,
  "doch</w>": 29616,
  "dock": 15623,
  "dock</w>": 5974,
  "docks</w>": 14740,
  "doctor</w>": 1880,
  "doctoral</w>": 9951,
  "doctorate</w>": 8821,
  "doctors</w>": 6479,
  "doctr": 17303,
  "doctrine</w>": 8894,
  "docu": 28920,
  "docum": 29765,
  "document": 28561,
  "document</w>": 5486,
  "documentaries</w>": 17088,
  "documentary</w>": 3467,
  "documentation</w>": 13920,
  "documented</w>": 7608,
  "documenting</w>": 26371,
  "documents</w>": 4464,
  "dod": 14704,
  "dodge</w>": 12876,
  "dodgers</w>": 14671,
  "doe</w>": 20533,
  "does": 28203,
  "does</w>": 614,
  "doesn</w>": 1143,
  "dog": 11178,
  "dog</w>": 2232,
  "dogs</w>": 4811,
  "doin</w>": 21940,
  "doing</w>": 817,
  "dol": 3965,
  "dol</w>": 26574,
  "dolf</w>": 28871,
  "doll</w>": 11130,
  "dollar</w>": 7448,
  "dollars</w>": 5227,
  "dolls</w>": 16088,
  "dolly</w>": 26308,
  "dolores</w>": 27440,
  "dolph": 28987,
  "dolph</w>": 28969,
  "dolphin</w>": 19756,
  "dolphins</w>": 14555,
  "dom": 3831,
  "dom</w>": 6048,
  "domain</w>": 5200,
  "domains</w>": 13817,
  "dome</w>": 7173,
  "domen": 28849,
  "domen</w>": 29772,
  "domenico</w>": 22117,
  "domes": 27259,
  "domesday</w>": 25025,
  "domestic": 24560,
  "domestic</w>": 3652,
  "domin": 9856,
  "dominance</w>": 14314,
  "dominant</w>": 6528,
  "dominate</w>": 17254,
  "dominated</w>": 5546,
  "dominating</w>": 24331,
  "domination</w>": 20133,
  "domingo</w>": 19214,
  "domini": 27684,
  "dominic</w>": 12260,
  "dominican</w>": 10553,
  "dominion</w>": 15167,
  "dominique</w>": 23915,
  "doms</w>": 23807,
  "don": 1873,
  "don</w>": 138,
  "dona</w>": 23716,
  "donal": 22534,
  "donald</w>": 5965,
  "donate</w>": 23796,
  "donated</w>": 5997,
  "donation</w>": 14186,
  "donations</w>": 11484,
  "doncaster</w>": 21757,
  "done": 29465,
  "done</w>": 653,
  "donet": 29975,
  "donetsk</w>": 24229,
  "dong": 16535,
  "dong</w>": 11770,
  "donkey</w>": 24790,
  "donna</w>": 12347,
  "donnell</w>": 22696,
  "dono": 27973,
  "donor</w>": 16854,
  "donors</w>": 19800,
  "donovan</w>": 14073,
  "dons</w>": 16918,
  "dont</w>": 6482,
  "doo": 11743,
  "doo</w>": 14926,
  "doom</w>": 14116,
  "doomed</w>": 22532,
  "door": 6807,
  "door</w>": 369,
  "doors</w>": 2569,
  "doorway</w>": 5986,
  "dop": 8816,
  "doping</w>": 26632,
  "dor": 2227,
  "dor</w>": 7068,
  "dora</w>": 15702,
  "dore</w>": 24409,
  "dorf</w>": 12118,
  "dorian</w>": 17961,
  "doris</w>": 18916,
  "dorm</w>": 21775,
  "dormant</w>": 25309,
  "dormit": 28296,
  "dormitory</w>": 25351,
  "doro": 19205,
  "dorothy</w>": 11620,
  "dors</w>": 28549,
  "dorsal</w>": 12842,
  "dorset</w>": 17339,
  "dos</w>": 5443,
  "dose</w>": 11187,
  "doses</w>": 23041,
  "dot</w>": 8634,
  "dots</w>": 16525,
  "dotted</w>": 22669,
  "dou": 4790,
  "dou</w>": 20642,
  "doub": 16176,
  "double": 27321,
  "double-": 6710,
  "double</w>": 2202,
  "doubled</w>": 11327,
  "doubles</w>": 6126,
  "doubling</w>": 22459,
  "doubt</w>": 3228,
  "doubted</w>": 12767,
  "doubtful</w>": 24486,
  "doubts</w>": 13302,
  "doug</w>": 9698,
  "dough": 25734,
  "dough</w>": 25931,
  "douglas</w>": 4666,
  "dous</w>": 28113,
  "dov</w>": 24863,
  "dova</w>": 27773,
  "dove</w>": 11308,
  "dover</w>": 11071,
  "dow": 5862,
  "dow</w>": 16068,
  "dowager</w>": 24162,
  "dowed</w>": 27650,
  "dowell</w>": 26091,
  "down": 4204,
  "down</w>": 113,
  "downed</w>": 22144,
  "downfall</w>": 25557,
  "downhill</w>": 21874,
  "downing</w>": 27082,
  "download</w>": 9612,
  "downloaded</w>": 26389,
  "downloads</w>": 25674,
  "downs</w>": 10713,
  "downstairs</w>": 9496,
  "downstream</w>": 13800,
  "downtown</w>": 3807,
  "downward</w>": 15175,
  "dows</w>": 25496,
  "dox</w>": 28448,
  "doyle</w>": 12070,
  "doz": 28494,
  "dozen</w>": 5320,
  "dozens</w>": 9372,
  "dp</w>": 10620,
  "dr": 2481,
  "dr.</w>": 1506,
  "dr</w>": 4697,
  "dra": 3506,
  "dra</w>": 4765,
  "drac": 28102,
  "dracula</w>": 24047,
  "draft</w>": 2885,
  "drafted</w>": 6619,
  "drafting</w>": 23838,
  "drag": 8241,
  "drag</w>": 7288,
  "dragged</w>": 6992,
  "dragging</w>": 11804,
  "dragon": 16880,
  "dragon</w>": 4224,
  "dragons</w>": 7954,
  "drain</w>": 12828,
  "drainage</w>": 12106,
  "drained</w>": 10756,
  "draining</w>": 21600,
  "drains</w>": 20681,
  "drake</w>": 7172,
  "dral</w>": 26382,
  "dram": 21128,
  "drama</w>": 2077,
  "dramas</w>": 17005,
  "dramati": 18289,
  "dramatic</w>": 5776,
  "dramatically</w>": 12020,
  "drank</w>": 10360,
  "draped</w>": 15836,
  "drastic</w>": 26982,
  "drastically</w>": 23325,
  "drau": 19677,
  "draw": 11617,
  "draw</w>": 2504,
  "drawer</w>": 13339,
  "drawers</w>": 25092,
  "drawing</w>": 3779,
  "drawings</w>": 9260,
  "drawn</w>": 3106,
  "draws</w>": 9267,
  "dre": 3597,
  "dre</w>": 13062,
  "dread": 22803,
  "dread</w>": 15446,
  "dreadful</w>": 24839,
  "dream": 8347,
  "dream</w>": 2589,
  "dreamed</w>": 14072,
  "dreaming</w>": 13045,
  "dreams</w>": 4651,
  "dred</w>": 13129,
  "dren</w>": 29025,
  "drenched</w>": 27525,
  "dresden</w>": 14922,
  "dress": 18835,
  "dress</w>": 2536,
  "dressed</w>": 3526,
  "dresser</w>": 15897,
  "dresses</w>": 14480,
  "dressing</w>": 10497,
  "drew</w>": 2195,
  "drey</w>": 28938,
  "dri": 2726,
  "drich</w>": 21433,
  "dridge</w>": 24624,
  "dried</w>": 9291,
  "drift</w>": 11983,
  "drifted</w>": 9506,
  "drifting</w>": 16104,
  "drill</w>": 13771,
  "drilling</w>": 17513,
  "drin": 19256,
  "drink</w>": 2825,
  "drinking</w>": 4819,
  "drinks</w>": 8392,
  "dripped</w>": 24793,
  "dripping</w>": 14801,
  "drive": 28529,
  "drive-": 25993,
  "drive</w>": 1575,
  "driven</w>": 4334,
  "driver</w>": 2685,
  "drivers</w>": 5753,
  "drives</w>": 8955,
  "driveway</w>": 10928,
  "driving</w>": 2955,
  "dro": 3168,
  "dro</w>": 22612,
  "drome</w>": 25232,
  "dron</w>": 14987,
  "drone</w>": 20485,
  "drop": 24902,
  "drop</w>": 3066,
  "dropped</w>": 1524,
  "dropping</w>": 6259,
  "drops</w>": 7658,
  "drought</w>": 16464,
  "drove</w>": 3772,
  "drow</w>": 22956,
  "drown</w>": 21767,
  "drowned</w>": 13294,
  "drowning</w>": 16082,
  "dru": 5083,
  "drug</w>": 2954,
  "drugs</w>": 4763,
  "drum": 13473,
  "drum</w>": 6330,
  "drummer</w>": 6286,
  "drumming</w>": 26115,
  "drummond</w>": 24129,
  "drums</w>": 5722,
  "drun": 22097,
  "drunk</w>": 6181,
  "drunken</w>": 17639,
  "dry": 11703,
  "dry</w>": 2597,
  "drying</w>": 19316,
  "dryly</w>": 22649,
  "ds": 8744,
  "ds-": 27220,
  "ds</w>": 988,
  "dsen</w>": 27400,
  "dship</w>": 27854,
  "dson</w>": 14355,
  "dt": 21161,
  "dt</w>": 7299,
  "du": 671,
  "du</w>": 2749,
  "dual-": 21710,
  "dual</w>": 7550,
  "dub": 20826,
  "dub</w>": 18648,
  "dubai</w>": 12651,
  "dubbed</w>": 8524,
  "dubious</w>": 25915,
  "dublin</w>": 5032,
  "duc": 6518,
  "duc</w>": 24257,
  "duce</w>": 28502,
  "duced</w>": 22736,
  "duchess</w>": 11556,
  "duchy</w>": 11161,
  "duci": 20130,
  "duck</w>": 9352,
  "ducked</w>": 13964,
  "ducks</w>": 15510,
  "duct</w>": 25213,
  "duction</w>": 16193,
  "dude</w>": 12064,
  "dudley</w>": 14513,
  "due</w>": 387,
  "duel</w>": 15925,
  "dues</w>": 28125,
  "duet</w>": 14232,
  "duff</w>": 20491,
  "duffy</w>": 25380,
  "dug</w>": 7935,
  "duke</w>": 2362,
  "dukes</w>": 18075,
  "dul": 5896,
  "dull</w>": 10459,
  "duly</w>": 24736,
  "dum": 9719,
  "dum</w>": 16446,
  "dumb": 17223,
  "dumb</w>": 13864,
  "dump</w>": 17170,
  "dumped</w>": 14465,
  "dumping</w>": 26395,
  "dun": 2544,
  "dun</w>": 15312,
  "duncan</w>": 7123,
  "dundee</w>": 15468,
  "dune</w>": 24715,
  "dunedin</w>": 26497,
  "dunes</w>": 19484,
  "dungeon</w>": 18662,
  "dungeons</w>": 21936,
  "dunn</w>": 17232,
  "duo</w>": 5992,
  "duous</w>": 28588,
  "dup</w>": 19796,
  "duplic": 13158,
  "dur": 3188,
  "dur</w>": 11930,
  "dural</w>": 24885,
  "duration</w>": 9356,
  "dure</w>": 29530,
  "dures</w>": 29442,
  "durham</w>": 9490,
  "during</w>": 104,
  "dus</w>": 9674,
  "dusk</w>": 20098,
  "dussel": 29657,
  "dusseldorf</w>": 24621,
  "dust</w>": 5220,
  "dusty</w>": 13539,
  "dutch</w>": 2284,
  "duties</w>": 4551,
  "duty</w>": 3316,
  "dv": 14318,
  "dvd</w>": 3964,
  "dvds</w>": 25388,
  "dve</w>": 18936,
  "dw": 20551,
  "dwar": 11973,
  "dwarf</w>": 11731,
  "dwell": 26457,
  "dwell</w>": 16671,
  "dwelling</w>": 13882,
  "dwellings</w>": 18425,
  "dwi": 27948,
  "dwight</w>": 16448,
  "dwind": 22998,
  "dy": 2596,
  "dy</w>": 2351,
  "dye</w>": 21084,
  "dying</w>": 4629,
  "dyke</w>": 24341,
  "dylan</w>": 7396,
  "dyn": 23795,
  "dynam": 12650,
  "dynamic</w>": 6914,
  "dynamics</w>": 9374,
  "dynamo</w>": 20549,
  "dynas": 29873,
  "dynasties</w>": 26094,
  "dynasty</w>": 4036,
  "dys": 17126,
  "dz": 10452,
  "dzi": 24093,
  "e": 233,
  "e-": 753,
  "e-</w>": 23115,
  "e-based</w>": 26240,
  "e-mail</w>": 18656,
  "e-sex</w>": 28591,
  "e.": 6040,
  "e.</w>": 2683,
  "e.g.</w>": 3539,
  "e</w>": 380,
  "ea": 3487,
  "ea</w>": 5697,
  "eable</w>": 14698,
  "eably</w>": 26350,
  "each</w>": 197,
  "ead</w>": 15118,
  "eae</w>": 18996,
  "eafter</w>": 28905,
  "eag": 17408,
  "eager</w>": 8526,
  "eagerly</w>": 19236,
  "eagle</w>": 6507,
  "eagles</w>": 7556,
  "eake</w>": 29992,
  "eam</w>": 29044,
  "ean</w>": 10963,
  "ear": 3034,
  "ear-": 14847,
  "ear-old</w>": 30125,
  "ear</w>": 2601,
  "eared</w>": 20625,
  "earl</w>": 3718,
  "earli": 29425,
  "earlier</w>": 1208,
  "earliest</w>": 4489,
  "early-": 20659,
  "early</w>": 254,
  "earn</w>": 6727,
  "earned</w>": 1863,
  "earnest</w>": 19346,
  "earning</w>": 5906,
  "earnings</w>": 18558,
  "earns</w>": 19609,
  "ears</w>": 3850,
  "earth": 11611,
  "earth-": 20992,
  "earth</w>": 1350,
  "earthqu": 29758,
  "earthquake</w>": 7863,
  "earthquakes</w>": 19333,
  "eas": 14570,
  "ease</w>": 6020,
  "eased</w>": 9863,
  "easi": 26803,
  "easier</w>": 4920,
  "easily</w>": 2361,
  "easing</w>": 26565,
  "east": 7146,
  "east-": 22170,
  "east-central</w>": 23923,
  "east-west</w>": 20871,
  "east</w>": 381,
  "easter": 18728,
  "easter</w>": 11505,
  "eastern</w>": 1056,
  "easton</w>": 26480,
  "eastward</w>": 18820,
  "easy</w>": 2109,
  "eat": 20897,
  "eat</w>": 2981,
  "eaten</w>": 8176,
  "eating</w>": 4808,
  "eaton</w>": 19197,
  "eats</w>": 22347,
  "eau</w>": 6574,
  "eaux</w>": 18880,
  "eb": 10034,
  "eb</w>": 13355,
  "ebe</w>": 29178,
  "eber": 20428,
  "ebert</w>": 25726,
  "ebl": 29474,
  "ec": 887,
  "ec</w>": 8220,
  "eca</w>": 20654,
  "eccentric</w>": 20542,
  "eccle": 28345,
  "ecclesi": 27833,
  "ecclesiastical</w>": 12656,
  "ece</w>": 12044,
  "ech": 7946,
  "ech</w>": 8428,
  "eches</w>": 25730,
  "echi": 22789,
  "eching</w>": 26117,
  "echo": 24188,
  "echo</w>": 8878,
  "echoed</w>": 9483,
  "echoes</w>": 20878,
  "echoing</w>": 18376,
  "eck": 21829,
  "eck</w>": 10257,
  "ecki</w>": 24594,
  "eclec": 29294,
  "eclectic</w>": 23195,
  "eclip": 19347,
  "eclipse</w>": 14790,
  "eco": 8681,
  "eco-": 26905,
  "eco</w>": 18807,
  "ecole</w>": 15184,
  "ecological</w>": 12831,
  "ecology</w>": 14741,
  "econom": 27016,
  "economic</w>": 1438,
  "economical</w>": 23811,
  "economically</w>": 16478,
  "economics</w>": 4796,
  "economies</w>": 21611,
  "economist</w>": 13018,
  "economists</w>": 25204,
  "economy</w>": 3262,
  "ecosystem</w>": 19141,
  "ecosystems</w>": 23627,
  "ecraft</w>": 28590,
  "ecstasy</w>": 22194,
  "ect</w>": 12120,
  "ected</w>": 10180,
  "ecting</w>": 14294,
  "ection": 28526,
  "ection</w>": 10376,
  "ections</w>": 18641,
  "ective</w>": 17195,
  "ects</w>": 12185,
  "ecture</w>": 30020,
  "ecu": 14844,
  "ecuador</w>": 11696,
  "ecumen": 25394,
  "ed": 1295,
  "ed-": 5093,
  "ed</w>": 556,
  "eda</w>": 9182,
  "eddie</w>": 5266,
  "eddy</w>": 20121,
  "ede": 21019,
  "ede</w>": 17188,
  "eded</w>": 20794,
  "eden</w>": 9485,
  "eder</w>": 19529,
  "edes</w>": 22489,
  "edgar</w>": 10733,
  "edge</w>": 1612,
  "edged</w>": 13350,
  "edges</w>": 7207,
  "edi": 9820,
[...]
